{
  "version": "1.0",
  "truncation": null,
  "padding": null,
  "added_tokens": [
    {
      "id": 0,
      "content": "<unk>",
      "single_word": false,
      "lstrip": false,
      "rstrip": false,
      "normalized": false,
      "special": true
    },
    {
      "id": 1,
      "content": "<s>",
      "single_word": false,
      "lstrip": false,
      "rstrip": false,
      "normalized": false,
      "special": true
    },
    {
      "id": 2,
      "content": "</s>",
      "single_word": false,
      "lstrip": false,
      "rstrip": false,
      "normalized": false,
      "special": true
    },
    {
      "id": 3,
      "content": "<pad>",
      "single_word": false,
      "lstrip": false,
      "rstrip": false,
      "normalized": false,
      "special": true
    },
    {
      "id": 4,
      "content": "<|im_start|>",
      "single_word": false,
      "lstrip": false,
      "rstrip": false,
      "normalized": false,
      "special": false
    },
    {
      "id": 5,
      "content": "<|im_end|>",
      "single_word": false,
      "lstrip": false,
      "rstrip": false,
      "normalized": false,
      "special": false
    },
    {
      "id": 6,
      "content": "<|audio_start|>",
      "single_word": false,
      "lstrip": false,
      "rstrip": false,
      "normalized": false,
      "special": false
    },
    {
      "id": 7,
      "content": "<|audio_end|>",
      "single_word": false,
      "lstrip": false,
      "rstrip": false,
      "normalized": false,
      "special": false
    },
    {
      "id": 8,
      "content": "<|vision_pad|>",
      "single_word": false,
      "lstrip": false,
      "rstrip": false,
      "normalized": false,
      "special": false
    },
    {
      "id": 9,
      "content": "<|video_pad|>",
      "single_word": false,
      "lstrip": false,
      "rstrip": false,
      "normalized": false,
      "special": false
    },
    {
      "id": 10,
      "content": "<|vision_start|>",
      "single_word": false,
      "lstrip": false,
      "rstrip": false,
      "normalized": false,
      "special": false
    },
    {
      "id": 11,
      "content": "<|vision_end|>",
      "single_word": false,
      "lstrip": false,
      "rstrip": false,
      "normalized": false,
      "special": false
    },
    {
      "id": 12,
      "content": "<|audio_pad|>",
      "single_word": false,
      "lstrip": false,
      "rstrip": false,
      "normalized": false,
      "special": false
    },
    {
      "id": 13,
      "content": "<user_inst>",
      "single_word": false,
      "lstrip": false,
      "rstrip": false,
      "normalized": false,
      "special": false
    },
    {
      "id": 14,
      "content": "</user_inst>",
      "single_word": false,
      "lstrip": false,
      "rstrip": false,
      "normalized": false,
      "special": false
    }
  ],
  "normalizer": {
    "type": "Sequence",
    "normalizers": [
      {
        "type": "Precompiled"
      },
      {
        "type": "Prepend",
        "prepend": "▁"
      },
      {
        "type": "Replace",
        "pattern": {
          "String": " "
        },
        "content": "▁"
      }
    ]
  },
  "pre_tokenizer": null,
  "post_processor": null,
  "decoder": {
    "type": "Sequence",
    "decoders": [
      {
        "type": "Replace",
        "pattern": {
          "String": "▁"
        },
        "content": " "
      },
      {
        "type": "ByteFallback"
      },
      {
        "type": "Fuse"
      },
      {
        "type": "Strip",
        "content": " ",
        "start": 1,
        "stop": 0
      }
    ]
  },
  "model": {
    "type": "BPE",
    "dropout": null,
    "unk_token": "<unk>",
    "continuing_subword_prefix": null,
    "end_of_word_suffix": null,
    "fuse_unk": true,
    "byte_fallback": true,
    "ignore_merges": false,
    "vocab": {
      "<unk>": 0,
      "<s>": 1,
      "</s>": 2,
      "<pad>": 3,
      "<|im_start|>": 4,
      "<|im_end|>": 5,
      "<|audio_start|>": 6,
      "<|audio_end|>": 7,
      "<|vision_pad|>": 8,
      "<|video_pad|>": 9,
      "<|vision_start|>": 10,
      "<|vision_end|>": 11,
      "<|audio_pad|>": 12,
      "<user_inst>": 13,
      "</user_inst>": 14,
      "<0x00>": 15,
      "<0x01>": 16,
      "<0x02>": 17,
      "<0x03>": 18,
      "<0x04>": 19,
      "<0x05>": 20,
      "<0x06>": 21,
      "<0x07>": 22,
      "<0x08>": 23,
      "<0x09>": 24,
      "<0x0A>": 25,
      "<0x0B>": 26,
      "<0x0C>": 27,
      "<0x0D>": 28,
      "<0x0E>": 29,
      "<0x0F>": 30,
      "<0x10>": 31,
      "<0x11>": 32,
      "<0x12>": 33,
      "<0x13>": 34,
      "<0x14>": 35,
      "<0x15>": 36,
      "<0x16>": 37,
      "<0x17>": 38,
      "<0x18>": 39,
      "<0x19>": 40,
      "<0x1A>": 41,
      "<0x1B>": 42,
      "<0x1C>": 43,
      "<0x1D>": 44,
      "<0x1E>": 45,
      "<0x1F>": 46,
      "<0x20>": 47,
      "<0x21>": 48,
      "<0x22>": 49,
      "<0x23>": 50,
      "<0x24>": 51,
      "<0x25>": 52,
      "<0x26>": 53,
      "<0x27>": 54,
      "<0x28>": 55,
      "<0x29>": 56,
      "<0x2A>": 57,
      "<0x2B>": 58,
      "<0x2C>": 59,
      "<0x2D>": 60,
      "<0x2E>": 61,
      "<0x2F>": 62,
      "<0x30>": 63,
      "<0x31>": 64,
      "<0x32>": 65,
      "<0x33>": 66,
      "<0x34>": 67,
      "<0x35>": 68,
      "<0x36>": 69,
      "<0x37>": 70,
      "<0x38>": 71,
      "<0x39>": 72,
      "<0x3A>": 73,
      "<0x3B>": 74,
      "<0x3C>": 75,
      "<0x3D>": 76,
      "<0x3E>": 77,
      "<0x3F>": 78,
      "<0x40>": 79,
      "<0x41>": 80,
      "<0x42>": 81,
      "<0x43>": 82,
      "<0x44>": 83,
      "<0x45>": 84,
      "<0x46>": 85,
      "<0x47>": 86,
      "<0x48>": 87,
      "<0x49>": 88,
      "<0x4A>": 89,
      "<0x4B>": 90,
      "<0x4C>": 91,
      "<0x4D>": 92,
      "<0x4E>": 93,
      "<0x4F>": 94,
      "<0x50>": 95,
      "<0x51>": 96,
      "<0x52>": 97,
      "<0x53>": 98,
      "<0x54>": 99,
      "<0x55>": 100,
      "<0x56>": 101,
      "<0x57>": 102,
      "<0x58>": 103,
      "<0x59>": 104,
      "<0x5A>": 105,
      "<0x5B>": 106,
      "<0x5C>": 107,
      "<0x5D>": 108,
      "<0x5E>": 109,
      "<0x5F>": 110,
      "<0x60>": 111,
      "<0x61>": 112,
      "<0x62>": 113,
      "<0x63>": 114,
      "<0x64>": 115,
      "<0x65>": 116,
      "<0x66>": 117,
      "<0x67>": 118,
      "<0x68>": 119,
      "<0x69>": 120,
      "<0x6A>": 121,
      "<0x6B>": 122,
      "<0x6C>": 123,
      "<0x6D>": 124,
      "<0x6E>": 125,
      "<0x6F>": 126,
      "<0x70>": 127,
      "<0x71>": 128,
      "<0x72>": 129,
      "<0x73>": 130,
      "<0x74>": 131,
      "<0x75>": 132,
      "<0x76>": 133,
      "<0x77>": 134,
      "<0x78>": 135,
      "<0x79>": 136,
      "<0x7A>": 137,
      "<0x7B>": 138,
      "<0x7C>": 139,
      "<0x7D>": 140,
      "<0x7E>": 141,
      "<0x7F>": 142,
      "<0x80>": 143,
      "<0x81>": 144,
      "<0x82>": 145,
      "<0x83>": 146,
      "<0x84>": 147,
      "<0x85>": 148,
      "<0x86>": 149,
      "<0x87>": 150,
      "<0x88>": 151,
      "<0x89>": 152,
      "<0x8A>": 153,
      "<0x8B>": 154,
      "<0x8C>": 155,
      "<0x8D>": 156,
      "<0x8E>": 157,
      "<0x8F>": 158,
      "<0x90>": 159,
      "<0x91>": 160,
      "<0x92>": 161,
      "<0x93>": 162,
      "<0x94>": 163,
      "<0x95>": 164,
      "<0x96>": 165,
      "<0x97>": 166,
      "<0x98>": 167,
      "<0x99>": 168,
      "<0x9A>": 169,
      "<0x9B>": 170,
      "<0x9C>": 171,
      "<0x9D>": 172,
      "<0x9E>": 173,
      "<0x9F>": 174,
      "<0xA0>": 175,
      "<0xA1>": 176,
      "<0xA2>": 177,
      "<0xA3>": 178,
      "<0xA4>": 179,
      "<0xA5>": 180,
      "<0xA6>": 181,
      "<0xA7>": 182,
      "<0xA8>": 183,
      "<0xA9>": 184,
      "<0xAA>": 185,
      "<0xAB>": 186,
      "<0xAC>": 187,
      "<0xAD>": 188,
      "<0xAE>": 189,
      "<0xAF>": 190,
      "<0xB0>": 191,
      "<0xB1>": 192,
      "<0xB2>": 193,
      "<0xB3>": 194,
      "<0xB4>": 195,
      "<0xB5>": 196,
      "<0xB6>": 197,
      "<0xB7>": 198,
      "<0xB8>": 199,
      "<0xB9>": 200,
      "<0xBA>": 201,
      "<0xBB>": 202,
      "<0xBC>": 203,
      "<0xBD>": 204,
      "<0xBE>": 205,
      "<0xBF>": 206,
      "<0xC0>": 207,
      "<0xC1>": 208,
      "<0xC2>": 209,
      "<0xC3>": 210,
      "<0xC4>": 211,
      "<0xC5>": 212,
      "<0xC6>": 213,
      "<0xC7>": 214,
      "<0xC8>": 215,
      "<0xC9>": 216,
      "<0xCA>": 217,
      "<0xCB>": 218,
      "<0xCC>": 219,
      "<0xCD>": 220,
      "<0xCE>": 221,
      "<0xCF>": 222,
      "<0xD0>": 223,
      "<0xD1>": 224,
      "<0xD2>": 225,
      "<0xD3>": 226,
      "<0xD4>": 227,
      "<0xD5>": 228,
      "<0xD6>": 229,
      "<0xD7>": 230,
      "<0xD8>": 231,
      "<0xD9>": 232,
      "<0xDA>": 233,
      "<0xDB>": 234,
      "<0xDC>": 235,
      "<0xDD>": 236,
      "<0xDE>": 237,
      "<0xDF>": 238,
      "<0xE0>": 239,
      "<0xE1>": 240,
      "<0xE2>": 241,
      "<0xE3>": 242,
      "<0xE4>": 243,
      "<0xE5>": 244,
      "<0xE6>": 245,
      "<0xE7>": 246,
      "<0xE8>": 247,
      "<0xE9>": 248,
      "<0xEA>": 249,
      "<0xEB>": 250,
      "<0xEC>": 251,
      "<0xED>": 252,
      "<0xEE>": 253,
      "<0xEF>": 254,
      "<0xF0>": 255,
      "<0xF1>": 256,
      "<0xF2>": 257,
      "<0xF3>": 258,
      "<0xF4>": 259,
      "<0xF5>": 260,
      "<0xF6>": 261,
      "<0xF7>": 262,
      "<0xF8>": 263,
      "<0xF9>": 264,
      "<0xFA>": 265,
      "<0xFB>": 266,
      "<0xFC>": 267,
      "<0xFD>": 268,
      "<0xFE>": 269,
      "<0xFF>": 270,
      "▁t": 271,
      "he": 272,
      "▁a": 273,
      "in": 274,
      "▁s": 275,
      "▁w": 276,
      "ou": 277,
      "re": 278,
      "an": 279,
      "▁the": 280,
      "▁d": 281,
      "on": 282,
      "ha": 283,
      "▁b": 284,
      "▁y": 285,
      "nd": 286,
      "ing": 287,
      "▁l": 288,
      "er": 289,
      "▁m": 290,
      "▁c": 291,
      "it": 292,
      "en": 293,
      "▁o": 294,
      "▁f": 295,
      "▁g": 296,
      "is": 297,
      "▁p": 298,
      "▁I": 299,
      "▁to": 300,
      "hat": 301,
      "es": 302,
      "▁you": 303,
      "ll": 304,
      "or": 305,
      "▁n": 306,
      "▁j": 307,
      "▁of": 308,
      "▁that": 309,
      "▁in": 310,
      "▁and": 311,
      "▁th": 312,
      "hi": 313,
      "ar": 314,
      "st": 315,
      "ed": 316,
      "▁z": 317,
      "om": 318,
      "at": 319,
      "ow": 320,
      "▁k": 321,
      "▁h": 322,
      "ve": 323,
      "▁A": 324,
      "▁de": 325,
      "▁ha": 326,
      "▁be": 327,
      "as": 328,
      "▁it": 329,
      "▁e": 330,
      "le": 331,
      "▁we": 332,
      "▁re": 333,
      "▁li": 334,
      "ot": 335,
      "al": 336,
      "ay": 337,
      "ke": 338,
      "ang": 339,
      "se": 340,
      "▁he": 341,
      "ic": 342,
      "▁is": 343,
      "▁u": 344,
      "et": 345,
      "▁on": 346,
      "ai": 347,
      "▁S": 348,
      "ut": 349,
      "ion": 350,
      "▁And": 351,
      "▁T": 352,
      "▁q": 353,
      "▁r": 354,
      "ent": 355,
      "ver": 356,
      "▁x": 357,
      "ac": 358,
      "all": 359,
      "▁shi": 360,
      "▁ji": 361,
      "out": 362,
      "ao": 363,
      "gh": 364,
      "▁ju": 365,
      "这个": 366,
      "ld": 367,
      "hen": 368,
      "ong": 369,
      "▁st": 370,
      "▁for": 371,
      "ly": 372,
      "id": 373,
      "▁was": 374,
      "▁like": 375,
      "▁me": 376,
      "▁kn": 377,
      "am": 378,
      "▁B": 379,
      "一个": 380,
      "▁go": 381,
      "ch": 382,
      "▁sh": 383,
      "▁this": 384,
      "▁know": 385,
      "im": 386,
      "uo": 387,
      "我们": 388,
      "4,": 389,
      "▁do": 390,
      "ro": 391,
      "ian": 392,
      "ally": 393,
      "ad": 394,
      "ith": 395,
      "就是": 396,
      "▁an": 397,
      "▁le": 398,
      "if": 399,
      "▁W": 400,
      "ght": 401,
      "od": 402,
      "▁yi": 403,
      "▁with": 404,
      "▁se": 405,
      "▁they": 406,
      "ct": 407,
      "ir": 408,
      "▁have": 409,
      "▁ð": 410,
      "▁qu": 411,
      "▁ab": 412,
      "ie": 413,
      "▁so": 414,
      "▁So": 415,
      "▁ne": 416,
      "▁as": 417,
      "nt": 418,
      "ui": 419,
      "▁at": 420,
      "op": 421,
      "▁just": 422,
      "ome": 423,
      "▁not": 424,
      "▁what": 425,
      "au": 426,
      "▁are": 427,
      "est": 428,
      "ink": 429,
      "ant": 430,
      "ight": 431,
      "▁Y": 432,
      "ould": 433,
      "▁C": 434,
      "▁M": 435,
      "ce": 436,
      "ur": 437,
      "un": 438,
      "her": 439,
      "什么": 440,
      "▁ɪ": 441,
      "▁xi": 442,
      "▁ə": 443,
      "▁H": 444,
      "▁or": 445,
      "▁mo": 446,
      "▁v": 447,
      "▁zh": 448,
      "ill": 449,
      "▁about": 450,
      "our": 451,
      "▁think": 452,
      "▁The": 453,
      "▁fr": 454,
      "▁can": 455,
      "▁bu": 456,
      "▁lo": 457,
      "▁there": 458,
      "▁ch": 459,
      "ol": 460,
      "没有": 461,
      "ers": 462,
      "ation": 463,
      "art": 464,
      "▁all": 465,
      "pp": 466,
      "▁your": 467,
      "▁tr": 468,
      "very": 469,
      "自己": 470,
      "▁ta": 471,
      "▁con": 472,
      "ig": 473,
      "ess": 474,
      "ind": 475,
      "▁al": 476,
      "▁ye": 477,
      "ort": 478,
      "▁ge": 479,
      "2,": 480,
      "▁com": 481,
      "▁wh": 482,
      "ag": 483,
      "▁L": 484,
      "▁su": 485,
      "▁get": 486,
      "el": 487,
      "ause": 488,
      "▁D": 489,
      "▁my": 490,
      "▁but": 491,
      "and": 492,
      "ist": 493,
      "ain": 494,
      "os": 495,
      "cause": 496,
      "▁int": 497,
      "▁pe": 498,
      "1,": 499,
      "ok": 500,
      "▁P": 501,
      "▁out": 502,
      "▁don": 503,
      "▁pro": 504,
      "▁N": 505,
      "▁But": 506,
      "▁ex": 507,
      "▁ma": 508,
      "▁It": 509,
      "ul": 510,
      "ri": 511,
      "uan": 512,
      "▁if": 513,
      "ast": 514,
      "ue": 515,
      "heng": 516,
      "il": 517,
      "时候": 518,
      "eng": 519,
      "ate": 520,
      "us": 521,
      "pe": 522,
      "ab": 523,
      "▁one": 524,
      "hing": 525,
      "ople": 526,
      "▁up": 527,
      "ive": 528,
      "▁wor": 529,
      "ack": 530,
      "他们": 531,
      "可以": 532,
      "▁some": 533,
      "fe": 534,
      "▁zhe": 535,
      "▁pl": 536,
      "▁people": 537,
      "▁from": 538,
      "▁te": 539,
      "▁really": 540,
      "▁thing": 541,
      "▁zhi": 542,
      "▁O": 543,
      "um": 544,
      "aɪ": 545,
      "▁because": 546,
      "▁hi": 547,
      "所以": 548,
      "ɪŋ": 549,
      "ter": 550,
      "▁J": 551,
      "不是": 552,
      "▁going": 553,
      "▁who": 554,
      "3,": 555,
      "▁di": 556,
      "em": 557,
      "▁G": 558,
      "▁say": 559,
      "li": 560,
      "▁E": 561,
      "▁R": 562,
      "▁You": 563,
      "▁fe": 564,
      "rou": 565,
      "▁no": 566,
      "▁ren": 567,
      "king": 568,
      "然后": 569,
      "▁/": 570,
      "▁We": 571,
      "▁when": 572,
      "res": 573,
      "▁F": 574,
      "▁ðə": 575,
      "▁had": 576,
      "ah": 577,
      "ime": 578,
      "▁then": 579,
      "▁would": 580,
      "因为": 581,
      "▁want": 582,
      "wo": 583,
      "na": 584,
      "▁U": 585,
      "▁gu": 586,
      "one": 587,
      "▁en": 588,
      "▁tu": 589,
      "ame": 590,
      "▁qi": 591,
      "▁right": 592,
      "▁more": 593,
      "ity": 594,
      "4。": 595,
      "here": 596,
      "ts": 597,
      "ven": 598,
      "▁them": 599,
      "▁us": 600,
      "▁mu": 601,
      "▁hu": 602,
      "ci": 603,
      "但是": 604,
      "▁were": 605,
      "▁how": 606,
      "▁ʌ": 607,
      "那么": 608,
      "ən": 609,
      "ose": 610,
      "▁dao": 611,
      "▁whi": 612,
      "▁wei": 613,
      "▁1": 614,
      "ment": 615,
      "▁ənd": 616,
      "ther": 617,
      "ide": 618,
      "的时候": 619,
      "ɔr": 620,
      "▁man": 621,
      "知道": 622,
      "so": 623,
      "red": 624,
      "▁did": 625,
      "如果": 626,
      "▁zi": 627,
      "▁time": 628,
      "了一": 629,
      "ks": 630,
      "▁ag": 631,
      "这样": 632,
      "00": 633,
      "ous": 634,
      "▁got": 635,
      "▁men": 636,
      "▁by": 637,
      "▁jiu": 638,
      "▁zai": 639,
      "ies": 640,
      "ra": 641,
      "▁our": 642,
      "现在": 643,
      "▁He": 644,
      "▁been": 645,
      "▁has": 646,
      "th": 647,
      "ine": 648,
      "▁she": 649,
      "▁kind": 650,
      "那个": 651,
      "▁ke": 652,
      "ard": 653,
      "他的": 654,
      "▁fu": 655,
      "æt": 656,
      "▁pr": 657,
      "▁their": 658,
      "可能": 659,
      "▁very": 660,
      "▁un": 661,
      "▁som": 662,
      "▁now": 663,
      "的人": 664,
      "▁da": 665,
      "▁any": 666,
      "▁his": 667,
      "act": 668,
      "▁zhong": 669,
      "▁every": 670,
      "▁way": 671,
      "▁hou": 672,
      "▁si": 673,
      "itt": 674,
      "怎么": 675,
      "▁where": 676,
      "▁act": 677,
      "▁que": 678,
      "▁look": 679,
      "已经": 680,
      "ore": 681,
      "▁tal": 682,
      "▁year": 683,
      "▁back": 684,
      "▁see": 685,
      "大家": 686,
      "▁mean": 687,
      "▁lot": 688,
      "per": 689,
      "▁which": 690,
      "▁po": 691,
      "▁guo": 692,
      "ber": 693,
      "ite": 694,
      "▁im": 695,
      "▁will": 696,
      "▁er": 697,
      "▁co": 698,
      "▁into": 699,
      "ck": 700,
      "reat": 701,
      "▁things": 702,
      "▁uh": 703,
      "ta": 704,
      "▁bi": 705,
      "▁these": 706,
      "▁somet": 707,
      "到了": 708,
      "aid": 709,
      "▁other": 710,
      "ure": 711,
      "ep": 712,
      "are": 713,
      "be": 714,
      "əl": 715,
      "▁sp": 716,
      "▁wo": 717,
      "这些": 718,
      "这种": 719,
      "▁That": 720,
      "▁xiang": 721,
      "▁over": 722,
      "lf": 723,
      "▁him": 724,
      "way": 725,
      "还是": 726,
      "觉得": 727,
      "ually": 728,
      "ice": 729,
      "▁2": 730,
      "pt": 731,
      "own": 732,
      "▁ʌv": 733,
      "▁could": 734,
      "ff": 735,
      "其实": 736,
      "都是": 737,
      "▁comp": 738,
      "▁aɪ": 739,
      "ble": 740,
      "▁yu": 741,
      "▁part": 742,
      "ge": 743,
      "▁good": 744,
      "ving": 745,
      "▁fa": 746,
      "▁Th": 747,
      "ace": 748,
      "▁her": 749,
      "▁here": 750,
      "▁They": 751,
      "▁off": 752,
      "▁also": 753,
      "▁ðæt": 754,
      "ions": 755,
      "一些": 756,
      "也是": 757,
      "ree": 758,
      "▁bo": 759,
      "lo": 760,
      "的话": 761,
      "▁lai": 762,
      "ni": 763,
      "▁hui": 764,
      "▁la": 765,
      "ji": 766,
      "▁those": 767,
      "ry": 768,
      "之后": 769,
      "ud": 770,
      "ust": 771,
      "▁said": 772,
      "▁something": 773,
      "▁need": 774,
      "问题": 775,
      "te": 776,
      "▁start": 777,
      "▁jian": 778,
      "▁chang": 779,
      "ne": 780,
      "▁well": 781,
      "时间": 782,
      "age": 783,
      "▁much": 784,
      "▁Ye": 785,
      "▁than": 786,
      "▁cha": 787,
      "▁chu": 788,
      "ting": 789,
      "▁shang": 790,
      "出来": 791,
      "的是": 792,
      "▁ti": 793,
      "▁K": 794,
      "▁play": 795,
      "2。": 796,
      "▁Yeah": 797,
      "ru": 798,
      "▁even": 799,
      "▁ad": 800,
      "人的": 801,
      "▁pre": 802,
      "irst": 803,
      "还有": 804,
      "ond": 805,
      "一下": 806,
      "▁cl": 807,
      "▁shuo": 808,
      "▁dif": 809,
      "▁ni": 810,
      "非常": 811,
      "▁happ": 812,
      "▁na": 813,
      "ɪt": 814,
      "▁du": 815,
      "自己的": 816,
      "▁ɪn": 817,
      "这是": 818,
      "▁litt": 819,
      "▁make": 820,
      "▁shen": 821,
      "ass": 822,
      "iz": 823,
      "▁br": 824,
      "▁actually": 825,
      "起来": 826,
      "ia": 827,
      "▁does": 828,
      "fere": 829,
      "ans": 830,
      "▁feel": 831,
      "▁work": 832,
      "▁ac": 833,
      "这么": 834,
      "或者": 835,
      "ody": 836,
      "▁yao": 837,
      "很多": 838,
      "▁little": 839,
      "iv": 840,
      "不能": 841,
      "▁jia": 842,
      "ick": 843,
      "▁jing": 844,
      "we": 845,
      "▁\"": 846,
      "▁per": 847,
      "▁wu": 848,
      "▁first": 849,
      "ning": 850,
      "ence": 851,
      "nder": 852,
      "▁day": 853,
      "onna": 854,
      "这一": 855,
      "ens": 856,
      "▁two": 857,
      "▁may": 858,
      "▁xian": 859,
      "▁fo": 860,
      "▁gonna": 861,
      "ɪs": 862,
      "zhe": 863,
      "▁spe": 864,
      "▁imp": 865,
      "ɛr": 866,
      "▁again": 867,
      "▁sheng": 868,
      "ike": 869,
      "▁cont": 870,
      "事情": 871,
      "▁sha": 872,
      "开始": 873,
      "round": 874,
      "ak": 875,
      "og": 876,
      "▁jie": 877,
      "ɪk": 878,
      "ory": 879,
      "▁xing": 880,
      "mp": 881,
      "orm": 882,
      "▁being": 883,
      "▁zhu": 884,
      "你的": 885,
      "东西": 886,
      "▁es": 887,
      "day": 888,
      "▁gr": 889,
      "▁θ": 890,
      "int": 891,
      "▁down": 892,
      "▁æ": 893,
      "ʌt": 894,
      "ach": 895,
      "▁ɑ": 896,
      "▁dis": 897,
      "这里": 898,
      "▁am": 899,
      "rough": 900,
      "▁differe": 901,
      "ys": 902,
      "3。": 903,
      "1。": 904,
      "ount": 905,
      "两个": 906,
      "▁talk": 907,
      "me": 908,
      "ound": 909,
      "也不": 910,
      "▁cheng": 911,
      "▁bet": 912,
      "ple": 913,
      "▁new": 914,
      "com": 915,
      "ord": 916,
      "▁through": 917,
      "的一": 918,
      "ious": 919,
      "▁doing": 920,
      "thing": 921,
      "▁thou": 922,
      "能够": 923,
      "▁Be": 924,
      "▁el": 925,
      "我的": 926,
      "▁show": 927,
      "ations": 928,
      "▁jin": 929,
      "able": 930,
      "▁big": 931,
      "▁um": 932,
      "ress": 933,
      "ap": 934,
      "▁ro": 935,
      "▁Like": 936,
      "需要": 937,
      "ance": 938,
      "的一个": 939,
      "▁years": 940,
      "▁af": 941,
      "▁call": 942,
      "应该": 943,
      "▁mei": 944,
      "▁app": 945,
      "▁ba": 946,
      "▁pers": 947,
      "一样": 948,
      "ying": 949,
      "孩子": 950,
      "▁sc": 951,
      "ade": 952,
      "▁xin": 953,
      "▁let": 954,
      "ase": 955,
      "▁res": 956,
      "▁ar": 957,
      "mer": 958,
      "..": 959,
      "▁bit": 960,
      "▁neng": 961,
      "vers": 962,
      "▁hæ": 963,
      "ft": 964,
      "▁take": 965,
      "▁V": 966,
      "▁wee": 967,
      "▁great": 968,
      "▁yang": 969,
      "▁pu": 970,
      "▁sa": 971,
      "你们": 972,
      "pl": 973,
      "▁xia": 974,
      "qu": 975,
      "▁inte": 976,
      "大的": 977,
      "▁under": 978,
      "▁dou": 979,
      "xt": 980,
      "other": 981,
      "lp": 982,
      "发现": 983,
      "▁chi": 984,
      "ty": 985,
      "fore": 986,
      "self": 987,
      "▁fang": 988,
      "▁hai": 989,
      "du": 990,
      "▁zuo": 991,
      "ary": 992,
      "▁different": 993,
      "▁This": 994,
      "▁qing": 995,
      "▁shu": 996,
      "工作": 997,
      "▁put": 998,
      "▁St": 999,
      "一定": 1000,
      "▁gong": 1001,
      "▁sort": 1002,
      "oʊ": 1003,
      "里面": 1004,
      "下来": 1005,
      "jiu": 1006,
      "▁i": 1007,
      "vel": 1008,
      "看到": 1009,
      "ason": 1010,
      "而且": 1011,
      "ail": 1012,
      "kay": 1013,
      "ated": 1014,
      "cess": 1015,
      "▁ɪz": 1016,
      "▁ɪt": 1017,
      "▁des": 1018,
      "▁xie": 1019,
      "body": 1020,
      "▁xiao": 1021,
      "bl": 1022,
      "第一": 1023,
      "▁yuan": 1024,
      "▁come": 1025,
      "▁dui": 1026,
      "▁didn": 1027,
      "ical": 1028,
      "▁What": 1029,
      "▁shou": 1030,
      "▁long": 1031,
      "▁gen": 1032,
      "▁still": 1033,
      "▁hua": 1034,
      "不过": 1035,
      "▁most": 1036,
      "▁mi": 1037,
      "▁only": 1038,
      "▁inc": 1039,
      "wn": 1040,
      "▁real": 1041,
      "▁There": 1042,
      "▁happen": 1043,
      "▁hao": 1044,
      "第二": 1045,
      "▁around": 1046,
      "▁wr": 1047,
      "▁jo": 1048,
      "▁zheng": 1049,
      "比较": 1050,
      "▁person": 1051,
      "rest": 1052,
      "▁In": 1053,
      "今天": 1054,
      "▁har": 1055,
      "▁help": 1056,
      "▁ru": 1057,
      "公司": 1058,
      "▁should": 1059,
      "▁list": 1060,
      "ways": 1061,
      "ʌm": 1062,
      "ves": 1063,
      "▁last": 1064,
      "ng": 1065,
      "si": 1066,
      "▁life": 1067,
      "比如": 1068,
      "▁end": 1069,
      "不会": 1070,
      "进行": 1071,
      "只是": 1072,
      "▁est": 1073,
      "ors": 1074,
      "cast": 1075,
      "▁rec": 1076,
      "ign": 1077,
      "▁before": 1078,
      "▁why": 1079,
      "▁love": 1080,
      "▁many": 1081,
      "ost": 1082,
      "上的": 1083,
      "▁after": 1084,
      "ps": 1085,
      "▁wi": 1086,
      "▁yeah": 1087,
      "ction": 1088,
      "▁If": 1089,
      "▁qian": 1090,
      "ɛn": 1091,
      "对吧": 1092,
      "▁quest": 1093,
      "eɪ": 1094,
      "imes": 1095,
      "▁min": 1096,
      "yi": 1097,
      "▁kan": 1098,
      "▁rem": 1099,
      "情况": 1100,
      "ically": 1101,
      "▁Well": 1102,
      "▁20": 1103,
      "ved": 1104,
      "ert": 1105,
      "地方": 1106,
      "ful": 1107,
      "▁bei": 1108,
      "ew": 1109,
      "ʊt": 1110,
      "▁jiao": 1111,
      "关系": 1112,
      "ably": 1113,
      "▁laɪ": 1114,
      "ult": 1115,
      "为什么": 1116,
      "▁maybe": 1117,
      "▁stu": 1118,
      "▁che": 1119,
      "ye": 1120,
      "▁dec": 1121,
      "ial": 1122,
      "▁always": 1123,
      "所有": 1124,
      "▁duo": 1125,
      "▁guan": 1126,
      "▁yan": 1127,
      "kt": 1128,
      "▁tell": 1129,
      "▁bl": 1130,
      "我们的": 1131,
      "ition": 1132,
      "感觉": 1133,
      "oc": 1134,
      "▁wɑ": 1135,
      "一种": 1136,
      "▁tong": 1137,
      "▁find": 1138,
      "▁mar": 1139,
      "▁ser": 1140,
      "虽然": 1141,
      "bs": 1142,
      "get": 1143,
      "▁inv": 1144,
      "odcast": 1145,
      "ɪd": 1146,
      "▁Um": 1147,
      "▁Ch": 1148,
      "▁wen": 1149,
      "说道": 1150,
      "▁dong": 1151,
      "shi": 1152,
      "▁point": 1153,
      "ren": 1154,
      "▁det": 1155,
      "ents": 1156,
      "▁tou": 1157,
      "直接": 1158,
      "▁too": 1159,
      "ʃən": 1160,
      "是不是": 1161,
      "生活": 1162,
      "好的": 1163,
      "▁Now": 1164,
      "ces": 1165,
      "▁ming": 1166,
      "ich": 1167,
      "▁att": 1168,
      "有些": 1169,
      "咱们": 1170,
      "中国": 1171,
      "ote": 1172,
      "▁might": 1173,
      "./": 1174,
      "▁ci": 1175,
      "form": 1176,
      "▁world": 1177,
      "▁cour": 1178,
      "ever": 1179,
      "以后": 1180,
      "对于": 1181,
      "▁comm": 1182,
      "最后": 1183,
      "为了": 1184,
      "▁dʒ": 1185,
      "▁fin": 1186,
      "ish": 1187,
      "▁bas": 1188,
      "▁wang": 1189,
      "ily": 1190,
      "▁tian": 1191,
      "▁own": 1192,
      "一点": 1193,
      "▁wat": 1194,
      "的这个": 1195,
      ".\"": 1196,
      "▁three": 1197,
      "▁interest": 1198,
      "▁ran": 1199,
      "▁jue": 1200,
      "pect": 1201,
      "ern": 1202,
      "▁prob": 1203,
      "▁Because": 1204,
      "ating": 1205,
      "ɪn": 1206,
      "hed": 1207,
      "就会": 1208,
      "ms": 1209,
      "ict": 1210,
      "▁noʊ": 1211,
      "urn": 1212,
      "▁game": 1213,
      "▁ɛ": 1214,
      "sh": 1215,
      "▁pos": 1216,
      "▁thought": 1217,
      "iss": 1218,
      "▁wan": 1219,
      "当时": 1220,
      "▁team": 1221,
      "▁liang": 1222,
      "重要": 1223,
      "▁gan": 1224,
      "▁str": 1225,
      "▁rel": 1226,
      "▁bian": 1227,
      "▁today": 1228,
      "▁next": 1229,
      "▁same": 1230,
      "不要": 1231,
      "lt": 1232,
      "▁ɔ": 1233,
      "个人": 1234,
      "▁dian": 1235,
      "▁ban": 1236,
      "cial": 1237,
      "中的": 1238,
      "ense": 1239,
      "朋友": 1240,
      "可是": 1241,
      "▁probably": 1242,
      "▁sec": 1243,
      "▁soʊ": 1244,
      "ise": 1245,
      "▁mon": 1246,
      "ual": 1247,
      "▁nian": 1248,
      "▁week": 1249,
      "之前": 1250,
      "那些": 1251,
      "▁supp": 1252,
      "▁wɪ": 1253,
      "oney": 1254,
      "▁never": 1255,
      "▁listen": 1256,
      "▁mian": 1257,
      "▁huo": 1258,
      "▁getting": 1259,
      "世界": 1260,
      "▁talking": 1261,
      "▁ter": 1262,
      "ute": 1263,
      "▁med": 1264,
      "iend": 1265,
      "ran": 1266,
      "▁ying": 1267,
      "▁ent": 1268,
      "▁mom": 1269,
      "ode": 1270,
      "▁yin": 1271,
      "我觉得": 1272,
      "ənt": 1273,
      "▁read": 1274,
      "我就": 1275,
      "▁ri": 1276,
      "▁mat": 1277,
      "一直": 1278,
      "iness": 1279,
      "▁stuff": 1280,
      "真的": 1281,
      "特别": 1282,
      "ire": 1283,
      "hao": 1284,
      "看着": 1285,
      "来的": 1286,
      "▁laɪk": 1287,
      "▁cr": 1288,
      "▁hen": 1289,
      "▁bel": 1290,
      "▁give": 1291,
      "▁bus": 1292,
      "只有": 1293,
      "一起": 1294,
      "当然": 1295,
      "▁cons": 1296,
      "kes": 1297,
      "▁fɔr": 1298,
      "▁use": 1299,
      "lle": 1300,
      "ward": 1301,
      "▁fan": 1302,
      "出现": 1303,
      "av": 1304,
      "bi": 1305,
      "▁ðɛr": 1306,
      "æn": 1307,
      "ates": 1308,
      "是一个": 1309,
      "▁3": 1310,
      "▁saying": 1311,
      "▁pi": 1312,
      "arly": 1313,
      "▁made": 1314,
      "▁ben": 1315,
      "ɪm": 1316,
      "▁book": 1317,
      "▁def": 1318,
      "▁better": 1319,
      "▁zhang": 1320,
      "▁dai": 1321,
      "▁sm": 1322,
      "▁run": 1323,
      "▁doesn": 1324,
      "▁jiang": 1325,
      "通过": 1326,
      "发生": 1327,
      "ɪz": 1328,
      "不知道": 1329,
      "ave": 1330,
      "▁exper": 1331,
      "这样的": 1332,
      "▁guys": 1333,
      "一般": 1334,
      "ough": 1335,
      "比如说": 1336,
      "来说": 1337,
      "▁ind": 1338,
      "ba": 1339,
      "you": 1340,
      "▁import": 1341,
      "▁fam": 1342,
      "old": 1343,
      "bu": 1344,
      "▁ev": 1345,
      "▁sure": 1346,
      "▁num": 1347,
      "▁car": 1348,
      "▁sk": 1349,
      "ʊd": 1350,
      "部分": 1351,
      "▁pol": 1352,
      "▁par": 1353,
      "dan": 1354,
      "▁trying": 1355,
      "▁dang": 1356,
      "▁No": 1357,
      "▁She": 1358,
      "▁money": 1359,
      "que": 1360,
      "出了": 1361,
      "ət": 1362,
      "di": 1363,
      "▁best": 1364,
      "▁ðɪs": 1365,
      "ss": 1366,
      "其他": 1367,
      "▁podcast": 1368,
      "az": 1369,
      "ju": 1370,
      "ower": 1371,
      "▁ku": 1372,
      "▁ob": 1373,
      "io": 1374,
      "fect": 1375,
      "▁ide": 1376,
      "▁fen": 1377,
      "▁xu": 1378,
      "▁another": 1379,
      "甚至": 1380,
      "▁lu": 1381,
      "▁xue": 1382,
      "▁went": 1383,
      "iew": 1384,
      "▁op": 1385,
      "▁done": 1386,
      "▁bot": 1387,
      "ket": 1388,
      "社会": 1389,
      "意思": 1390,
      "▁sur": 1391,
      "▁able": 1392,
      "▁em": 1393,
      "▁yong": 1394,
      "老师": 1395,
      "ident": 1396,
      "arn": 1397,
      "/,": 1398,
      "xi": 1399,
      "当中": 1400,
      "认为": 1401,
      "二十": 1402,
      "ath": 1403,
      "ont": 1404,
      "vious": 1405,
      "▁fl": 1406,
      "过来": 1407,
      "▁hard": 1408,
      "有一": 1409,
      "▁keep": 1410,
      "去了": 1411,
      "▁ep": 1412,
      "je": 1413,
      "▁important": 1414,
      "stand": 1415,
      "同时": 1416,
      "▁dan": 1417,
      "是一": 1418,
      "▁sy": 1419,
      "▁count": 1420,
      "ited": 1421,
      "了一个": 1422,
      "方面": 1423,
      "肯定": 1424,
      "▁ins": 1425,
      "▁belie": 1426,
      "之间": 1427,
      "▁ding": 1428,
      "read": 1429,
      "▁question": 1430,
      "come": 1431,
      "▁business": 1432,
      "▁Al": 1433,
      "▁course": 1434,
      "▁fun": 1435,
      "cus": 1436,
      "tty": 1437,
      "▁wɝ": 1438,
      "als": 1439,
      "▁bao": 1440,
      "▁having": 1441,
      "▁fact": 1442,
      "ention": 1443,
      "▁jun": 1444,
      "▁Is": 1445,
      "▁yue": 1446,
      "结果": 1447,
      "是什么": 1448,
      "发展": 1449,
      "不同": 1450,
      "▁says": 1451,
      "▁everything": 1452,
      "▁looking": 1453,
      "▁ph": 1454,
      "▁coming": 1455,
      "ons": 1456,
      "喜欢": 1457,
      "ertain": 1458,
      "ram": 1459,
      "▁bui": 1460,
      "▁ling": 1461,
      "▁rep": 1462,
      "əd": 1463,
      "企业": 1464,
      "▁pretty": 1465,
      "▁ya": 1466,
      "▁Jo": 1467,
      "▁hæv": 1468,
      "国家": 1469,
      "任何": 1470,
      "▁cou": 1471,
      "co": 1472,
      "包括": 1473,
      "▁story": 1474,
      "ars": 1475,
      "zai": 1476,
      "学习": 1477,
      "▁bing": 1478,
      "▁Tr": 1479,
      "▁ʃ": 1480,
      "整个": 1481,
      "ten": 1482,
      "gan": 1483,
      "▁tai": 1484,
      "▁epis": 1485,
      "选择": 1486,
      "▁sl": 1487,
      "几个": 1488,
      "有一个": 1489,
      "▁ask": 1490,
      "过程": 1491,
      "也就是": 1492,
      "ember": 1493,
      "三个": 1494,
      "能力": 1495,
      "▁understand": 1496,
      "▁ɔl": 1497,
      "əs": 1498,
      "是在": 1499,
      "zh": 1500,
      "▁set": 1501,
      "olog": 1502,
      "▁produ": 1503,
      "▁zhan": 1504,
      "▁guy": 1505,
      "▁san": 1506,
      "▁whole": 1507,
      "完全": 1508,
      "方式": 1509,
      "▁How": 1510,
      "ner": 1511,
      "▁care": 1512,
      "影响": 1513,
      "身体": 1514,
      "man": 1515,
      "只要": 1516,
      "▁friend": 1517,
      "ɛl": 1518,
      "▁ting": 1519,
      "▁All": 1520,
      "注意": 1521,
      "▁bai": 1522,
      "说的": 1523,
      "▁home": 1524,
      "必须": 1525,
      "作为": 1526,
      "les": 1527,
      "如何": 1528,
      "▁et": 1529,
      "▁ɪts": 1530,
      "自然": 1531,
      "▁okay": 1532,
      "ɛt": 1533,
      "cho": 1534,
      "▁anything": 1535,
      "过去": 1536,
      "告诉": 1537,
      "▁wom": 1538,
      "别人": 1539,
      "▁Br": 1540,
      "▁kid": 1541,
      "ʌst": 1542,
      "▁away": 1543,
      "▁high": 1544,
      "▁place": 1545,
      "▁started": 1546,
      "以及": 1547,
      "▁ce": 1548,
      "成了": 1549,
      "▁zhen": 1550,
      "▁10": 1551,
      "▁Uh": 1552,
      "▁called": 1553,
      "▁hand": 1554,
      "ather": 1555,
      "▁came": 1556,
      "▁month": 1557,
      "要求": 1558,
      "如此": 1559,
      "gg": 1560,
      "不对": 1561,
      "ics": 1562,
      "▁liu": 1563,
      "▁sit": 1564,
      "▁inter": 1565,
      "主要": 1566,
      "20": 1567,
      "▁compan": 1568,
      "突然": 1569,
      "vɝ": 1570,
      "▁kai": 1571,
      "多少": 1572,
      "▁someone": 1573,
      "▁pres": 1574,
      "▁fei": 1575,
      "▁oh": 1576,
      "你看": 1577,
      "ness": 1578,
      "ope": 1579,
      "▁cai": 1580,
      "它的": 1581,
      "▁few": 1582,
      "...": 1583,
      "好了": 1584,
      "你就": 1585,
      "000": 1586,
      "▁bʌt": 1587,
      "▁God": 1588,
      "▁5": 1589,
      "▁four": 1590,
      "▁top": 1591,
      "▁proble": 1592,
      "ific": 1593,
      "ced": 1594,
      "▁seem": 1595,
      "▁quan": 1596,
      "▁ever": 1597,
      "来了": 1598,
      "rt": 1599,
      "▁zu": 1600,
      "行为": 1601,
      "ility": 1602,
      "好像": 1603,
      "▁reg": 1604,
      "▁win": 1605,
      "ative": 1606,
      "继续": 1607,
      "ump": 1608,
      "ny": 1609,
      "想到": 1610,
      "ames": 1611,
      "▁experi": 1612,
      "希望": 1613,
      "əm": 1614,
      "meric": 1615,
      "▁wɪð": 1616,
      "有人": 1617,
      "up": 1618,
      "che": 1619,
      "▁gao": 1620,
      "▁head": 1621,
      "方法": 1622,
      "bo": 1623,
      "alth": 1624,
      "▁reason": 1625,
      "ings": 1626,
      "的事情": 1627,
      "想要": 1628,
      "于是": 1629,
      "▁je": 1630,
      "▁number": 1631,
      "de": 1632,
      "你要": 1633,
      "▁lead": 1634,
      "ʌn": 1635,
      "简单": 1636,
      "实际": 1637,
      "▁comes": 1638,
      "▁suo": 1639,
      "/.": 1640,
      "▁ele": 1641,
      "▁try": 1642,
      "▁both": 1643,
      "viously": 1644,
      "准备": 1645,
      "▁its": 1646,
      "▁second": 1647,
      "▁Okay": 1648,
      "的大": 1649,
      "▁$": 1650,
      "▁hear": 1651,
      "在这": 1652,
      "▁moment": 1653,
      "ues": 1654,
      "内容": 1655,
      "▁wa": 1656,
      "▁sim": 1657,
      "▁Americ": 1658,
      "明白": 1659,
      "▁whatever": 1660,
      "▁interesting": 1661,
      "那种": 1662,
      "▁certain": 1663,
      "▁cle": 1664,
      "根本": 1665,
      "不到": 1666,
      "管理": 1667,
      "ities": 1668,
      "刚才": 1669,
      "▁wanted": 1670,
      "▁Le": 1671,
      "hip": 1672,
      "多的": 1673,
      "ied": 1674,
      "der": 1675,
      "一次": 1676,
      "是不": 1677,
      "美国": 1678,
      "▁Do": 1679,
      "▁mind": 1680,
      "▁Se": 1681,
      "成为": 1682,
      "▁av": 1683,
      "一个人": 1684,
      "▁add": 1685,
      "▁Wh": 1686,
      "oy": 1687,
      "▁4": 1688,
      "▁nan": 1689,
      "▁ðeɪ": 1690,
      "ɪl": 1691,
      "▁old": 1692,
      "ark": 1693,
      "ird": 1694,
      "▁ve": 1695,
      "ular": 1696,
      "▁dʒʌst": 1697,
      "基本": 1698,
      "后来": 1699,
      "▁bre": 1700,
      "容易": 1701,
      "都不": 1702,
      "▁else": 1703,
      "▁against": 1704,
      "llow": 1705,
      "▁gi": 1706,
      "▁inst": 1707,
      "▁De": 1708,
      "▁quite": 1709,
      "▁far": 1710,
      "lly": 1711,
      "▁Or": 1712,
      "我是": 1713,
      "年的": 1714,
      "对方": 1715,
      "存在": 1716,
      "▁dr": 1717,
      "ɪŋk": 1718,
      "只能": 1719,
      "他们的": 1720,
      "▁plan": 1721,
      "its": 1722,
      "▁word": 1723,
      "iting": 1724,
      "▁stud": 1725,
      "ier": 1726,
      "▁idea": 1727,
      "▁New": 1728,
      "▁sin": 1729,
      "▁Chr": 1730,
      "▁found": 1731,
      "▁five": 1732,
      "▁used": 1733,
      "▁build": 1734,
      "ɪv": 1735,
      "pr": 1736,
      "▁die": 1737,
      "▁child": 1738,
      "▁remember": 1739,
      "▁zui": 1740,
      "▁zhao": 1741,
      "ater": 1742,
      "就不": 1743,
      "声音": 1744,
      "ween": 1745,
      "▁bad": 1746,
      "▁lian": 1747,
      "ject": 1748,
      "▁ty": 1749,
      "清楚": 1750,
      "▁turn": 1751,
      "▁opp": 1752,
      "aɪt": 1753,
      "▁wʌt": 1754,
      "真正": 1755,
      "zhi": 1756,
      "▁seen": 1757,
      "▁enough": 1758,
      "是吧": 1759,
      "▁making": 1760,
      "▁watch": 1761,
      "▁episode": 1762,
      "心里": 1763,
      "är": 1764,
      "理解": 1765,
      "▁couple": 1766,
      "▁gener": 1767,
      "▁han": 1768,
      "ments": 1769,
      "▁working": 1770,
      "在这个": 1771,
      "stem": 1772,
      "他说": 1773,
      "▁cor": 1774,
      "来看": 1775,
      "▁pay": 1776,
      "▁wasn": 1777,
      "▁lao": 1778,
      "▁nɑ": 1779,
      "我说": 1780,
      "blic": 1781,
      "▁acc": 1782,
      "身上": 1783,
      "有点": 1784,
      "价值": 1785,
      "不得": 1786,
      "row": 1787,
      "▁times": 1788,
      "成功": 1789,
      "chool": 1790,
      "办法": 1791,
      "▁while": 1792,
      "▁As": 1793,
      "▁between": 1794,
      "▁pass": 1795,
      "▁exp": 1796,
      "▁believe": 1797,
      "▁whe": 1798,
      "▁invest": 1799,
      "ork": 1800,
      "nce": 1801,
      "他是": 1802,
      "▁ext": 1803,
      "illion": 1804,
      "▁vi": 1805,
      "ins": 1806,
      "决定": 1807,
      "▁guess": 1808,
      "使用": 1809,
      "的事": 1810,
      "cy": 1811,
      "▁Oh": 1812,
      "▁sign": 1813,
      "给你": 1814,
      "他就": 1815,
      "qi": 1816,
      "句话": 1817,
      "▁oʊ": 1818,
      "▁night": 1819,
      "无法": 1820,
      "▁cre": 1821,
      "▁met": 1822,
      "▁gei": 1823,
      "▁toget": 1824,
      "▁ret": 1825,
      "▁family": 1826,
      "▁eas": 1827,
      "vern": 1828,
      "▁together": 1829,
      "首先": 1830,
      "▁change": 1831,
      "▁partic": 1832,
      "ənd": 1833,
      "fu": 1834,
      "ism": 1835,
      "ger": 1836,
      "▁goʊ": 1837,
      "fl": 1838,
      "uring": 1839,
      "gy": 1840,
      "▁trans": 1841,
      "▁exam": 1842,
      "到底": 1843,
      "进入": 1844,
      "▁fi": 1845,
      "▁move": 1846,
      "▁nu": 1847,
      "▁When": 1848,
      "ready": 1849,
      "人家": 1850,
      "unity": 1851,
      "▁hum": 1852,
      "▁char": 1853,
      "▁19": 1854,
      "cri": 1855,
      "子的": 1856,
      "▁learn": 1857,
      "得到": 1858,
      "▁sʌm": 1859,
      "▁Re": 1860,
      "sel": 1861,
      "样的": 1862,
      "▁au": 1863,
      "▁feng": 1864,
      "面的": 1865,
      "ood": 1866,
      "因此": 1867,
      "出去": 1868,
      "▁already": 1869,
      "baʊt": 1870,
      "性的": 1871,
      "而是": 1872,
      "之中": 1873,
      "▁goes": 1874,
      "▁power": 1875,
      "land": 1876,
      "另外": 1877,
      "amp": 1878,
      "ma": 1879,
      "▁support": 1880,
      "▁cur": 1881,
      "也没有": 1882,
      "▁thinking": 1883,
      "▁season": 1884,
      "▁por": 1885,
      "view": 1886,
      "▁open": 1887,
      "▁though": 1888,
      "有的": 1889,
      "arent": 1890,
      "▁əbaʊt": 1891,
      "ross": 1892,
      "里的": 1893,
      "▁ɔr": 1894,
      "第三": 1895,
      "▁side": 1896,
      "力量": 1897,
      "▁comple": 1898,
      "air": 1899,
      "机会": 1900,
      "ale": 1901,
      "▁less": 1902,
      "cept": 1903,
      "▁dire": 1904,
      "arch": 1905,
      "原因": 1906,
      "▁such": 1907,
      "▁live": 1908,
      "iter": 1909,
      "ze": 1910,
      "▁system": 1911,
      "▁gui": 1912,
      "▁job": 1913,
      "▁exc": 1914,
      "br": 1915,
      "att": 1916,
      "▁iss": 1917,
      "▁ass": 1918,
      "▁deal": 1919,
      "▁war": 1920,
      "▁adv": 1921,
      "▁cong": 1922,
      "就可以": 1923,
      "不了": 1924,
      "hai": 1925,
      "▁Let": 1926,
      "目标": 1927,
      "▁aut": 1928,
      "▁creat": 1929,
      "suo": 1930,
      "你说": 1931,
      "▁days": 1932,
      "产品": 1933,
      "▁level": 1934,
      "▁rang": 1935,
      "most": 1936,
      "ric": 1937,
      "离开": 1938,
      "▁Un": 1939,
      "▁case": 1940,
      "带着": 1941,
      "▁abs": 1942,
      "▁sense": 1943,
      "▁obviously": 1944,
      "ral": 1945,
      "ational": 1946,
      "属于": 1947,
      "▁Trump": 1948,
      "led": 1949,
      "▁each": 1950,
      "不断": 1951,
      "解决": 1952,
      "▁song": 1953,
      "yin": 1954,
      "ling": 1955,
      "▁bring": 1956,
      "▁makes": 1957,
      "ines": 1958,
      "▁free": 1959,
      "▁happened": 1960,
      "控制": 1961,
      "olute": 1962,
      "是有": 1963,
      "▁ze": 1964,
      "产生": 1965,
      "不好": 1966,
      "▁grow": 1967,
      "眼睛": 1968,
      "下的": 1969,
      "人们": 1970,
      "也有": 1971,
      "此时": 1972,
      "ately": 1973,
      "ɛd": 1974,
      "▁dat": 1975,
      "▁dri": 1976,
      "就在": 1977,
      "让他": 1978,
      "da": 1979,
      "▁yourself": 1980,
      "ðɝ": 1981,
      "▁los": 1982,
      "▁rest": 1983,
      "▁æz": 1984,
      "▁govern": 1985,
      "才能": 1986,
      "▁basically": 1987,
      "▁art": 1988,
      "▁defin": 1989,
      "竟然": 1990,
      "▁school": 1991,
      "给我": 1992,
      "▁hope": 1993,
      "▁whether": 1994,
      "▁everyone": 1995,
      "ize": 1996,
      "研究": 1997,
      "▁ple": 1998,
      "10": 1999,
      "con": 2000,
      "这就是": 2001,
      "听到": 2002,
      "▁hist": 2003,
      "对不对": 2004,
      "▁val": 2005,
      "经济": 2006,
      "有什么": 2007,
      "市场": 2008,
      "故事": 2009,
      "▁saw": 2010,
      "▁My": 2011,
      "的东西": 2012,
      "ank": 2013,
      "▁tech": 2014,
      "vi": 2015,
      "▁é": 2016,
      "▁name": 2017,
      "less": 2018,
      "▁stand": 2019,
      "▁gai": 2020,
      "的小": 2021,
      "▁var": 2022,
      "其中": 2023,
      "学生": 2024,
      "▁problem": 2025,
      "▁left": 2026,
      "ɪli": 2027,
      "▁huan": 2028,
      "▁For": 2029,
      "ision": 2030,
      "▁mem": 2031,
      "▁health": 2032,
      "第一个": 2033,
      "同学": 2034,
      "ball": 2035,
      "相信": 2036,
      "▁prog": 2037,
      "▁shui": 2038,
      "▁Z": 2039,
      "rap": 2040,
      "组织": 2041,
      "▁ago": 2042,
      "▁så": 2043,
      "ken": 2044,
      "各种": 2045,
      "ina": 2046,
      "技术": 2047,
      "除了": 2048,
      "qui": 2049,
      "▁kids": 2050,
      "了解": 2051,
      "▁Just": 2052,
      "系统": 2053,
      "▁pri": 2054,
      "状态": 2055,
      "就像": 2056,
      "教育": 2057,
      "pəl": 2058,
      "确实": 2059,
      "▁shan": 2060,
      "意识": 2061,
      "▁Sp": 2062,
      "都会": 2063,
      "电话": 2064,
      "ible": 2065,
      "安全": 2066,
      "ized": 2067,
      "əli": 2068,
      "上了": 2069,
      "ures": 2070,
      "▁almost": 2071,
      "elt": 2072,
      "dd": 2073,
      "▁resp": 2074,
      "▁ans": 2075,
      "har": 2076,
      "关于": 2077,
      "按照": 2078,
      "三十": 2079,
      "▁den": 2080,
      "▁contin": 2081,
      "项目": 2082,
      "并且": 2083,
      "▁means": 2084,
      "ɛst": 2085,
      "所以说": 2086,
      "ash": 2087,
      "cially": 2088,
      "▁nei": 2089,
      "ives": 2090,
      "▁mod": 2091,
      "▁expl": 2092,
      "ado": 2093,
      "gen": 2094,
      "▁wal": 2095,
      "父母": 2096,
      "说了": 2097,
      "▁everybody": 2098,
      "领导": 2099,
      "ories": 2100,
      "▁follow": 2101,
      "orth": 2102,
      "ices": 2103,
      "似乎": 2104,
      "vor": 2105,
      "▁del": 2106,
      "一定要": 2107,
      "▁Don": 2108,
      "▁conf": 2109,
      "▁hour": 2110,
      "▁house": 2111,
      "▁somebody": 2112,
      "精神": 2113,
      "▁convers": 2114,
      "▁state": 2115,
      "▁experience": 2116,
      "bers": 2117,
      "▁once": 2118,
      "ats": 2119,
      "▁deng": 2120,
      "med": 2121,
      "▁æt": 2122,
      "上面": 2123,
      "▁duan": 2124,
      "以前": 2125,
      "如果你": 2126,
      "hn": 2127,
      "▁Q": 2128,
      "ret": 2129,
      "uc": 2130,
      "ering": 2131,
      "▁least": 2132,
      "然后呢": 2133,
      "帮助": 2134,
      "以为": 2135,
      "并不": 2136,
      "作用": 2137,
      "▁pa": 2138,
      "▁possi": 2139,
      "▁dem": 2140,
      "▁incl": 2141,
      "改变": 2142,
      "的问题": 2143,
      "▁line": 2144,
      "▁maɪ": 2145,
      "▁gou": 2146,
      "历史": 2147,
      "ɝz": 2148,
      "▁super": 2149,
      "走了": 2150,
      "▁Fr": 2151,
      "▁stop": 2152,
      "▁à": 2153,
      "回来": 2154,
      "全部": 2155,
      "▁told": 2156,
      "▁blo": 2157,
      "cer": 2158,
      "nding": 2159,
      "▁small": 2160,
      "ock": 2161,
      "叫做": 2162,
      "▁6": 2163,
      "▁wai": 2164,
      "先生": 2165,
      "▁qin": 2166,
      "的地方": 2167,
      "▁shao": 2168,
      "ement": 2169,
      "▁half": 2170,
      "▁ed": 2171,
      "gin": 2172,
      "▁Christ": 2173,
      "ʊr": 2174,
      "▁unt": 2175,
      "都有": 2176,
      "▁young": 2177,
      "▁One": 2178,
      "或者是": 2179,
      "selves": 2180,
      "主义": 2181,
      "▁took": 2182,
      "的时间": 2183,
      "政府": 2184,
      "▁mus": 2185,
      "▁qui": 2186,
      "▁sub": 2187,
      "▁ver": 2188,
      "ution": 2189,
      "▁miss": 2190,
      "等等": 2191,
      "▁country": 2192,
      "▁jɔr": 2193,
      "▁grou": 2194,
      "▁ɪf": 2195,
      "女人": 2196,
      "投资": 2197,
      "经常": 2198,
      "▁der": 2199,
      "▁without": 2200,
      "▁example": 2201,
      "十分": 2202,
      "信息": 2203,
      "▁bɪk": 2204,
      "给他": 2205,
      "▁women": 2206,
      "这个时候": 2207,
      "▁inform": 2208,
      "不可": 2209,
      "ɛm": 2210,
      "接下来": 2211,
      "▁gl": 2212,
      "19": 2213,
      "▁pat": 2214,
      "▁ɪnt": 2215,
      "▁US": 2216,
      "我也": 2217,
      "▁suc": 2218,
      "下去": 2219,
      "不管": 2220,
      "住了": 2221,
      "ake": 2222,
      "▁body": 2223,
      "心中": 2224,
      "▁won": 2225,
      "ists": 2226,
      "ɔz": 2227,
      "心理": 2228,
      "rop": 2229,
      "▁chan": 2230,
      "它是": 2231,
      "▁process": 2232,
      "olutely": 2233,
      "▁quick": 2234,
      "line": 2235,
      "go": 2236,
      "根据": 2237,
      "愿意": 2238,
      "ip": 2239,
      "刚刚": 2240,
      "ef": 2241,
      "▁six": 2242,
      "▁myself": 2243,
      "更加": 2244,
      "▁ping": 2245,
      "▁liao": 2246,
      "▁aw": 2247,
      "itely": 2248,
      "▁qiang": 2249,
      "ɛs": 2250,
      "▁gets": 2251,
      "▁past": 2252,
      "活动": 2253,
      "条件": 2254,
      "▁situ": 2255,
      "▁sound": 2256,
      "no": 2257,
      "ither": 2258,
      "所谓": 2259,
      "▁terms": 2260,
      "怎么样": 2261,
      "找到": 2262,
      "osed": 2263,
      "▁exact": 2264,
      "▁sing": 2265,
      "都没有": 2266,
      "▁bie": 2267,
      "▁ɪm": 2268,
      "▁zhou": 2269,
      "▁kæn": 2270,
      "▁espe": 2271,
      "▁since": 2272,
      "▁relations": 2273,
      "▁polit": 2274,
      "▁taking": 2275,
      "▁vo": 2276,
      "▁sol": 2277,
      "过了": 2278,
      "▁isn": 2279,
      "在了": 2280,
      "一边": 2281,
      "▁qie": 2282,
      "ɛri": 2283,
      "看看": 2284,
      "▁huang": 2285,
      "▁company": 2286,
      "还要": 2287,
      "velop": 2288,
      "▁talked": 2289,
      "ɪʃən": 2290,
      "知识": 2291,
      "▁eh": 2292,
      "side": 2293,
      "▁mention": 2294,
      "说话": 2295,
      "ob": 2296,
      "▁ا": 2297,
      "前面": 2298,
      "ially": 2299,
      "儿子": 2300,
      "▁full": 2301,
      "▁wʌn": 2302,
      "▁kɑ": 2303,
      "▁gɑ": 2304,
      "处理": 2305,
      "▁mor": 2306,
      "日本": 2307,
      "ɪf": 2308,
      "文化": 2309,
      "变得": 2310,
      "▁sometimes": 2311,
      "▁vers": 2312,
      "ente": 2313,
      "▁hat": 2314,
      "有了": 2315,
      "并没有": 2316,
      "接着": 2317,
      "里边": 2318,
      "点头": 2319,
      "越来": 2320,
      "▁nat": 2321,
      "也会": 2322,
      "min": 2323,
      "gu": 2324,
      "▁tʃ": 2325,
      "▁hon": 2326,
      "hes": 2327,
      "最终": 2328,
      "环境": 2329,
      "▁prof": 2330,
      "获得": 2331,
      "ton": 2332,
      "cking": 2333,
      "ː,": 2334,
      "每天": 2335,
      "▁become": 2336,
      "▁product": 2337,
      "了一下": 2338,
      "▁contro": 2339,
      "是个": 2340,
      "▁law": 2341,
      "▁news": 2342,
      "dʒ": 2343,
      "▁colle": 2344,
      "▁dɑ": 2345,
      "ɪst": 2346,
      "表现": 2347,
      "ub": 2348,
      "▁government": 2349,
      "▁heard": 2350,
      "有没有": 2351,
      "▁biao": 2352,
      "▁stay": 2353,
      "代表": 2354,
      "▁gre": 2355,
      "越来越": 2356,
      "▁May": 2357,
      "ital": 2358,
      "ety": 2359,
      "ook": 2360,
      "▁nothing": 2361,
      "在这里": 2362,
      "aut": 2363,
      "一声": 2364,
      "▁later": 2365,
      "认识": 2366,
      "▁fig": 2367,
      "▁cap": 2368,
      "▁conc": 2369,
      "▁expect": 2370,
      "后面": 2371,
      "晚上": 2372,
      "计划": 2373,
      "▁zao": 2374,
      "ream": 2375,
      "很快": 2376,
      "▁early": 2377,
      "dui": 2378,
      "▁lun": 2379,
      "▁ways": 2380,
      "▁often": 2381,
      "то": 2382,
      "就要": 2383,
      "▁vide": 2384,
      "æts": 2385,
      "▁John": 2386,
      "变化": 2387,
      "实际上": 2388,
      "▁focus": 2389,
      "▁answ": 2390,
      "ster": 2391,
      "新的": 2392,
      "正在": 2393,
      "wei": 2394,
      "▁les": 2395,
      "绝对": 2396,
      "单位": 2397,
      "原来": 2398,
      "我不": 2399,
      "▁market": 2400,
      "ude": 2401,
      "▁leg": 2402,
      "▁especially": 2403,
      "▁9": 2404,
      "▁nv": 2405,
      "▁definitely": 2406,
      "由于": 2407,
      "服务": 2408,
      "▁pick": 2409,
      "▁对": 2410,
      "几乎": 2411,
      "你是": 2412,
      "生命": 2413,
      "▁cho": 2414,
      "cle": 2415,
      "这次": 2416,
      "▁Mar": 2417,
      "面前": 2418,
      "方向": 2419,
      "▁bɪkɔz": 2420,
      "责任": 2421,
      "▁test": 2422,
      "aking": 2423,
      "▁months": 2424,
      "to": 2425,
      "▁bro": 2426,
      "▁Te": 2427,
      "分之": 2428,
      "▁und": 2429,
      "父亲": 2430,
      "会儿": 2431,
      "定的": 2432,
      "他在": 2433,
      "接受": 2434,
      "▁develop": 2435,
      "那一": 2436,
      "ón": 2437,
      "ene": 2438,
      "▁At": 2439,
      "zy": 2440,
      "lling": 2441,
      "▁sw": 2442,
      "▁8": 2443,
      "成本": 2444,
      "▁7": 2445,
      "我想": 2446,
      "色的": 2447,
      "orts": 2448,
      "ield": 2449,
      "ology": 2450,
      "▁friends": 2451,
      "▁cent": 2452,
      "把它": 2453,
      "▁true": 2454,
      "▁fight": 2455,
      "▁Ar": 2456,
      "这件": 2457,
      "▁Go": 2458,
      "合同": 2459,
      "年轻": 2460,
      "where": 2461,
      "▁using": 2462,
      "所有的": 2463,
      "ti": 2464,
      "设计": 2465,
      "▁Not": 2466,
      "▁mid": 2467,
      "▁record": 2468,
      "▁complete": 2469,
      "▁Can": 2470,
      "▁ai": 2471,
      "▁wrong": 2472,
      "提供": 2473,
      "▁allow": 2474,
      "看了": 2475,
      "经过": 2476,
      "▁train": 2477,
      "完了": 2478,
      "情绪": 2479,
      "▁pot": 2480,
      "▁questions": 2481,
      "不仅": 2482,
      "app": 2483,
      "▁meet": 2484,
      "分析": 2485,
      "ared": 2486,
      "▁geng": 2487,
      "▁rɪli": 2488,
      "曾经": 2489,
      "ais": 2490,
      "ney": 2491,
      "一看": 2492,
      "▁games": 2493,
      "法律": 2494,
      "ages": 2495,
      "▁Sh": 2496,
      "受到": 2497,
      "▁wond": 2498,
      "▁Aust": 2499,
      "bing": 2500,
      "▁during": 2501,
      "aɪnd": 2502,
      "▁lar": 2503,
      "位置": 2504,
      "▁social": 2505,
      "▁pop": 2506,
      "urs": 2507,
      "▁stru": 2508,
      "的那个": 2509,
      "考虑": 2510,
      "会有": 2511,
      "▁dist": 2512,
      "cha": 2513,
      "人员": 2514,
      "就算": 2515,
      "身边": 2516,
      "我要": 2517,
      "毕竟": 2518,
      "▁million": 2519,
      "ɛnt": 2520,
      "人民": 2521,
      "▁until": 2522,
      "一步": 2523,
      "就是说": 2524,
      "哪里": 2525,
      "▁human": 2526,
      "ɛk": 2527,
      "fort": 2528,
      "生产": 2529,
      "▁listening": 2530,
      "▁qiu": 2531,
      "样子": 2532,
      "▁ef": 2533,
      "▁chuan": 2534,
      "▁room": 2535,
      "分享": 2536,
      "▁zou": 2537,
      "▁felt": 2538,
      "也可以": 2539,
      "慢慢": 2540,
      "▁yet": 2541,
      "▁son": 2542,
      "终于": 2543,
      "po": 2544,
      "基础": 2545,
      "▁hold": 2546,
      "男人": 2547,
      "心的": 2548,
      "起了": 2549,
      "▁fil": 2550,
      "▁tan": 2551,
      "▁playing": 2552,
      "关键": 2553,
      "ife": 2554,
      "让我": 2555,
      "▁luo": 2556,
      "▁main": 2557,
      "▁ref": 2558,
      "▁emp": 2559,
      "▁post": 2560,
      "50": 2561,
      "目的": 2562,
      "ient": 2563,
      "是因为": 2564,
      "▁sui": 2565,
      "▁på": 2566,
      "小时": 2567,
      "出来的": 2568,
      "utes": 2569,
      "▁form": 2570,
      "下面": 2571,
      "许多": 2572,
      "ʊk": 2573,
      "正常": 2574,
      "▁spec": 2575,
      "导致": 2576,
      "▁Su": 2577,
      "▁cool": 2578,
      "▁chao": 2579,
      "▁Right": 2580,
      "ctor": 2581,
      "▁una": 2582,
      "实力": 2583,
      "▁Co": 2584,
      "▁huge": 2585,
      "▁knew": 2586,
      "əb": 2587,
      "▁conne": 2588,
      "▁gɛt": 2589,
      "▁pas": 2590,
      "皇帝": 2591,
      "解释": 2592,
      "的情况": 2593,
      "jor": 2594,
      "mei": 2595,
      "了起来": 2596,
      "▁break": 2597,
      "aught": 2598,
      "▁chen": 2599,
      "conom": 2600,
      "不用": 2601,
      "rent": 2602,
      "▁ris": 2603,
      "ched": 2604,
      "wards": 2605,
      "人都": 2606,
      "ns": 2607,
      "上去": 2608,
      "在那": 2609,
      "随着": 2610,
      "əz": 2611,
      "▁haʊ": 2612,
      "ib": 2613,
      "▁mess": 2614,
      "▁food": 2615,
      "æk": 2616,
      "第二个": 2617,
      "▁cra": 2618,
      "▁public": 2619,
      "建立": 2620,
      "的手": 2621,
      "努力": 2622,
      "▁either": 2623,
      "那就": 2624,
      "gr": 2625,
      "把这个": 2626,
      "▁beh": 2627,
      "▁check": 2628,
      "国的": 2629,
      "▁seeing": 2630,
      "▁parent": 2631,
      "▁Yes": 2632,
      "ás": 2633,
      "▁close": 2634,
      "▁pract": 2635,
      "面对": 2636,
      "也没": 2637,
      "▁yun": 2638,
      "一样的": 2639,
      "set": 2640,
      "家庭": 2641,
      "家的": 2642,
      "soʊ": 2643,
      "aces": 2644,
      "▁seems": 2645,
      "▁fut": 2646,
      "我在": 2647,
      "说是": 2648,
      "▁hit": 2649,
      "工程": 2650,
      "然而": 2651,
      "▁information": 2652,
      "不住": 2653,
      "əns": 2654,
      "ste": 2655,
      "▁buy": 2656,
      "azing": 2657,
      "▁tiao": 2658,
      "ando": 2659,
      "itive": 2660,
      "既然": 2661,
      "ional": 2662,
      "▁media": 2663,
      "给大家": 2664,
      "ians": 2665,
      "本来": 2666,
      "▁vis": 2667,
      "出的": 2668,
      "▁pie": 2669,
      "瞬间": 2670,
      "▁happens": 2671,
      "▁zong": 2672,
      "▁mil": 2673,
      "▁foot": 2674,
      "back": 2675,
      "多了": 2676,
      "也就": 2677,
      "▁favor": 2678,
      "▁happening": 2679,
      "▁lin": 2680,
      "变成": 2681,
      "▁dep": 2682,
      "oot": 2683,
      "普通": 2684,
      "itting": 2685,
      "那你": 2686,
      "▁aʊt": 2687,
      "具体": 2688,
      "一切": 2689,
      "aw": 2690,
      "关注": 2691,
      "▁On": 2692,
      "▁lv": 2693,
      "▁light": 2694,
      "ʊɝ": 2695,
      "反应": 2696,
      "问道": 2697,
      "▁kong": 2698,
      "ler": 2699,
      "妈妈": 2700,
      "▁success": 2701,
      "让你": 2702,
      "▁lang": 2703,
      "空间": 2704,
      "两人": 2705,
      "zi": 2706,
      "大概": 2707,
      "ɔrt": 2708,
      "来到": 2709,
      "▁effect": 2710,
      "▁prom": 2711,
      "▁frʌm": 2712,
      ",000": 2713,
      "▁haven": 2714,
      "▁lei": 2715,
      "▁ener": 2716,
      "▁program": 2717,
      "▁ap": 2718,
      "行动": 2719,
      "▁sal": 2720,
      "开了": 2721,
      "▁air": 2722,
      "一百": 2723,
      "ía": 2724,
      "gs": 2725,
      "ls": 2726,
      "▁我": 2727,
      "▁zhuang": 2728,
      "dang": 2729,
      "实现": 2730,
      "uro": 2731,
      "回到": 2732,
      "相关": 2733,
      "▁absolutely": 2734,
      "真是": 2735,
      "▁class": 2736,
      "▁tre": 2737,
      "收入": 2738,
      "形成": 2739,
      "▁exactly": 2740,
      "无论": 2741,
      "▁techn": 2742,
      "不知": 2743,
      "▁organ": 2744,
      "▁fall": 2745,
      "的一些": 2746,
      "ract": 2747,
      "▁group": 2748,
      "do": 2749,
      "资产": 2750,
      "治疗": 2751,
      "▁data": 2752,
      "家里": 2753,
      "▁Cl": 2754,
      "▁within": 2755,
      "ɪr": 2756,
      "fic": 2757,
      "▁tot": 2758,
      "母亲": 2759,
      "ada": 2760,
      "ality": 2761,
      "实在": 2762,
      "▁history": 2763,
      "ming": 2764,
      "我们就": 2765,
      "▁across": 2766,
      "▁prov": 2767,
      "▁il": 2768,
      "五十": 2769,
      "四个": 2770,
      "时代": 2771,
      "▁short": 2772,
      "▁step": 2773,
      "想法": 2774,
      "在一起": 2775,
      "兄弟": 2776,
      "uss": 2777,
      "▁space": 2778,
      "▁Com": 2779,
      "ands": 2780,
      "▁gang": 2781,
      "下了": 2782,
      "本身": 2783,
      "els": 2784,
      "思想": 2785,
      "重要的": 2786,
      "用的": 2787,
      "▁econom": 2788,
      "明显": 2789,
      "ants": 2790,
      "ently": 2791,
      "意义": 2792,
      "▁An": 2793,
      "▁order": 2794,
      "▁fast": 2795,
      "▁feeling": 2796,
      "erv": 2797,
      "▁amazing": 2798,
      "▁ste": 2799,
      "▁thank": 2800,
      "▁matter": 2801,
      "事儿": 2802,
      "地上": 2803,
      "再次": 2804,
      "老板": 2805,
      "▁pai": 2806,
      "▁manag": 2807,
      "完成": 2808,
      "▁opport": 2809,
      "▁enj": 2810,
      "▁rong": 2811,
      "▁liter": 2812,
      "▁30": 2813,
      "▁п": 2814,
      "▁chong": 2815,
      "阶段": 2816,
      "▁cas": 2817,
      "▁Am": 2818,
      "hor": 2819,
      "学校": 2820,
      "▁в": 2821,
      "人类": 2822,
      "▁running": 2823,
      "ring": 2824,
      "出一": 2825,
      "ints": 2826,
      "做的": 2827,
      "并不是": 2828,
      "era": 2829,
      "▁yes": 2830,
      "▁eng": 2831,
      "▁Austral": 2832,
      "▁begin": 2833,
      "▁kill": 2834,
      "到的": 2835,
      "cal": 2836,
      "gn": 2837,
      "ane": 2838,
      "跟着": 2839,
      "▁situation": 2840,
      "ero": 2841,
      "▁rese": 2842,
      "ɪtʃ": 2843,
      "不少": 2844,
      "▁guang": 2845,
      "tʃ": 2846,
      "▁behind": 2847,
      "▁forward": 2848,
      "▁mov": 2849,
      "▁front": 2850,
      "▁kou": 2851,
      "▁serv": 2852,
      "规定": 2853,
      "▁tra": 2854,
      "应该是": 2855,
      "▁easy": 2856,
      "死了": 2857,
      "outh": 2858,
      "▁æn": 2859,
      "▁single": 2860,
      "▁dra": 2861,
      "ots": 2862,
      "▁wɛn": 2863,
      "▁Pro": 2864,
      "▁minutes": 2865,
      "ets": 2866,
      "▁along": 2867,
      "▁conversation": 2868,
      "▁cult": 2869,
      "▁gotta": 2870,
      "▁kuai": 2871,
      "▁report": 2872,
      "经历": 2873,
      "▁Pe": 2874,
      "保护": 2875,
      "lleng": 2876,
      "▁looked": 2877,
      "▁pin": 2878,
      "她的": 2879,
      "▁event": 2880,
      "人生": 2881,
      "▁prote": 2882,
      "相当": 2883,
      "▁To": 2884,
      "ased": 2885,
      "▁future": 2886,
      "欢迎": 2887,
      "yu": 2888,
      "ör": 2889,
      "正确": 2890,
      "▁jour": 2891,
      "▁weeks": 2892,
      "看来": 2893,
      "我们要": 2894,
      "一天": 2895,
      "一年": 2896,
      "▁nice": 2897,
      "▁press": 2898,
      "还不": 2899,
      "ɛz": 2900,
      "一九": 2901,
      "▁pɑ": 2902,
      "都在": 2903,
      "很多人": 2904,
      "▁ein": 2905,
      "尤其": 2906,
      "▁202": 2907,
      "说明": 2908,
      "▁needs": 2909,
      "▁н": 2910,
      "▁asked": 2911,
      "cted": 2912,
      "▁cu": 2913,
      "立刻": 2914,
      "▁imag": 2915,
      "▁share": 2916,
      "▁ear": 2917,
      "▁lie": 2918,
      "hu": 2919,
      "▁Pl": 2920,
      "运动": 2921,
      "马上": 2922,
      "▁sent": 2923,
      "看见": 2924,
      "kr": 2925,
      "nds": 2926,
      "让人": 2927,
      "▁heart": 2928,
      "▁opt": 2929,
      "▁children": 2930,
      "▁looks": 2931,
      "ider": 2932,
      "▁join": 2933,
      "施工": 2934,
      "▁intern": 2935,
      "▁Man": 2936,
      "名字": 2937,
      "非常的": 2938,
      "▁includ": 2939,
      "lic": 2940,
      "有个": 2941,
      "政治": 2942,
      "▁pain": 2943,
      "cc": 2944,
      "▁Me": 2945,
      "▁view": 2946,
      "增加": 2947,
      "▁wouldn": 2948,
      "▁fore": 2949,
      "感到": 2950,
      "▁嗯": 2951,
      "ards": 2952,
      "idence": 2953,
      "▁answer": 2954,
      "▁infl": 2955,
      "▁para": 2956,
      "大学": 2957,
      "ove": 2958,
      "顿时": 2959,
      "▁mai": 2960,
      "去做": 2961,
      "▁entire": 2962,
      "ron": 2963,
      "▁gone": 2964,
      "▁ball": 2965,
      "确定": 2966,
      "ural": 2967,
      "▁Mic": 2968,
      "消息": 2969,
      "▁appro": 2970,
      "所以呢": 2971,
      "▁mɔr": 2972,
      "ile": 2973,
      "电影": 2974,
      "▁sci": 2975,
      "▁Jes": 2976,
      "▁Every": 2977,
      "▁strong": 2978,
      "▁uni": 2979,
      "自由": 2980,
      "思考": 2981,
      "ided": 2982,
      "▁hun": 2983,
      "标准": 2984,
      "cing": 2985,
      "居然": 2986,
      "▁ten": 2987,
      "城市": 2988,
      "目光": 2989,
      "▁walk": 2990,
      "▁pan": 2991,
      "▁cut": 2992,
      "▁challeng": 2993,
      "那就是": 2994,
      "加上": 2995,
      "至于": 2996,
      "▁wʊd": 2997,
      "▁cost": 2998,
      "他不": 2999,
      "之下": 3000,
      "▁water": 3001,
      "ensive": 3002,
      "acy": 3003,
      "我们在": 3004,
      "健康": 3005,
      "▁mentioned": 3006,
      "记得": 3007,
      "entially": 3008,
      "如今": 3009,
      "▁fucking": 3010,
      "▁wants": 3011,
      "▁Bl": 3012,
      "量的": 3013,
      "▁works": 3014,
      "▁15": 3015,
      "iden": 3016,
      "▁pur": 3017,
      "速度": 3018,
      "▁self": 3019,
      "表示": 3020,
      "▁players": 3021,
      "▁community": 3022,
      "回去": 3023,
      "女儿": 3024,
      "结束": 3025,
      "▁leave": 3026,
      "▁ʌp": 3027,
      "▁Car": 3028,
      "程度": 3029,
      "▁const": 3030,
      "▁xuan": 3031,
      "▁enc": 3032,
      "▁hor": 3033,
      "▁honest": 3034,
      "▁ess": 3035,
      "进去": 3036,
      "ished": 3037,
      "sp": 3038,
      "却是": 3039,
      "▁hey": 3040,
      "▁das": 3041,
      "回答": 3042,
      "放在": 3043,
      "任务": 3044,
      "着一": 3045,
      "▁invol": 3046,
      "支持": 3047,
      "leep": 3048,
      "▁pus": 3049,
      "wu": 3050,
      "习惯": 3051,
      "dle": 3052,
      "▁gir": 3053,
      "ik": 3054,
      "ones": 3055,
      "▁energy": 3056,
      "▁morning": 3057,
      "▁diffic": 3058,
      "事实": 3059,
      "▁face": 3060,
      "你可以": 3061,
      "经验": 3062,
      "xiang": 3063,
      "▁given": 3064,
      "gest": 3065,
      "▁goʊɪŋ": 3066,
      "▁stre": 3067,
      "▁relationship": 3068,
      "或者说": 3069,
      "那是": 3070,
      "▁seɪ": 3071,
      "ben": 3072,
      "▁Why": 3073,
      "▁plus": 3074,
      "一旦": 3075,
      "mm": 3076,
      "脸上": 3077,
      "▁ðɛn": 3078,
      "便是": 3079,
      "▁¿": 3080,
      "▁happy": 3081,
      "两个人": 3082,
      "▁xiu": 3083,
      "经营": 3084,
      "▁Je": 3085,
      "攻击": 3086,
      "chen": 3087,
      "jin": 3088,
      "力的": 3089,
      "可能会": 3090,
      "战争": 3091,
      "▁zhuan": 3092,
      "ouse": 3093,
      "atch": 3094,
      "ocr": 3095,
      "其他的": 3096,
      "自我": 3097,
      "做了": 3098,
      "那我们": 3099,
      "站在": 3100,
      "▁tang": 3101,
      "百分之": 3102,
      "具有": 3103,
      "cuss": 3104,
      "▁beaut": 3105,
      "赶紧": 3106,
      "ɪŋz": 3107,
      "▁с": 3108,
      "▁incred": 3109,
      "iong": 3110,
      "ried": 3111,
      "要是": 3112,
      "之外": 3113,
      "▁norm": 3114,
      "口气": 3115,
      "iday": 3116,
      "给了": 3117,
      "▁certainly": 3118,
      "▁Then": 3119,
      "▁clear": 3120,
      "等于": 3121,
      "son": 3122,
      "不敢": 3123,
      "▁video": 3124,
      "就能": 3125,
      "▁completely": 3126,
      "ries": 3127,
      "思维": 3128,
      "▁deep": 3129,
      "各位": 3130,
      "hy": 3131,
      "▁Ke": 3132,
      "你会": 3133,
      "分钟": 3134,
      "▁American": 3135,
      "销售": 3136,
      "ury": 3137,
      "还没有": 3138,
      "ony": 3139,
      "shen": 3140,
      "遇到": 3141,
      "0%": 3142,
      "这个人": 3143,
      "▁respon": 3144,
      "head": 3145,
      "这儿": 3146,
      "长的": 3147,
      "?/": 3148,
      "达到": 3149,
      "这位": 3150,
      "同样": 3151,
      "左右": 3152,
      "十二": 3153,
      "数据": 3154,
      "客户": 3155,
      "▁bɪ": 3156,
      "也就是说": 3157,
      "▁control": 3158,
      "小的": 3159,
      "每个": 3160,
      "▁outside": 3161,
      "ator": 3162,
      "▁United": 3163,
      "天下": 3164,
      "都要": 3165,
      "▁mot": 3166,
      "▁fre": 3167,
      "保证": 3168,
      "▁201": 3169,
      "ague": 3170,
      "▁trad": 3171,
      "行业": 3172,
      "rought": 3173,
      "身份": 3174,
      "很难": 3175,
      "重新": 3176,
      "▁companies": 3177,
      "▁bang": 3178,
      "▁100": 3179,
      "不同的": 3180,
      "▁lau": 3181,
      "这边": 3182,
      "反正": 3183,
      "后的": 3184,
      "什么呢": 3185,
      "fully": 3186,
      "▁create": 3187,
      "是否": 3188,
      "itch": 3189,
      "家伙": 3190,
      "bt": 3191,
      "▁col": 3192,
      "4、": 3193,
      "你不": 3194,
      "结构": 3195,
      "▁living": 3196,
      "你在": 3197,
      "▁possible": 3198,
      "衣服": 3199,
      "▁Af": 3200,
      "▁wonder": 3201,
      "▁type": 3202,
      "▁starting": 3203,
      "手机": 3204,
      "la": 3205,
      "介绍": 3206,
      "my": 3207,
      "者的": 3208,
      "▁hæd": 3209,
      "▁Maybe": 3210,
      "▁incre": 3211,
      "▁hours": 3212,
      "arter": 3213,
      "▁ja": 3214,
      "▁og": 3215,
      "▁couldn": 3216,
      "银行": 3217,
      "▁rele": 3218,
      "价格": 3219,
      "ɛkt": 3220,
      "地区": 3221,
      "还在": 3222,
      "风险": 3223,
      "▁enjoy": 3224,
      "周围": 3225,
      "▁zen": 3226,
      "ald": 3227,
      "ization": 3228,
      "▁necess": 3229,
      "▁special": 3230,
      "▁raɪt": 3231,
      "▁phys": 3232,
      "▁baɪ": 3233,
      "真正的": 3234,
      "▁vɛri": 3235,
      "▁perfect": 3236,
      "▁ones": 3237,
      "▁played": 3238,
      "材料": 3239,
      "▁Jesus": 3240,
      "相对": 3241,
      "unch": 3242,
      "▁aʊɝ": 3243,
      "▁amount": 3244,
      "至少": 3245,
      "arr": 3246,
      "负责": 3247,
      "ː.": 3248,
      "▁themselves": 3249,
      "rew": 3250,
      "▁är": 3251,
      "ka": 3252,
      "▁aud": 3253,
      "的就是": 3254,
      "这两": 3255,
      "▁points": 3256,
      "▁tao": 3257,
      "原则": 3258,
      "▁discuss": 3259,
      "参加": 3260,
      "ument": 3261,
      "▁sun": 3262,
      "节目": 3263,
      "oʊz": 3264,
      "▁jʊr": 3265,
      "ison": 3266,
      "▁worked": 3267,
      "难道": 3268,
      "制度": 3269,
      "坚持": 3270,
      "▁low": 3271,
      ",\"": 3272,
      "执行": 3273,
      "inal": 3274,
      "cks": 3275,
      "了吗": 3276,
      "▁dig": 3277,
      "可能是": 3278,
      "来讲": 3279,
      "的这种": 3280,
      "▁interview": 3281,
      "▁major": 3282,
      "危险": 3283,
      "但是呢": 3284,
      "▁camp": 3285,
      "科学": 3286,
      "▁ب": 3287,
      "▁age": 3288,
      "▁lost": 3289,
      "应当": 3290,
      "距离": 3291,
      "建议": 3292,
      ",,": 3293,
      "une": 3294,
      "忽然": 3295,
      "他也": 3296,
      "▁Pr": 3297,
      "保持": 3298,
      "正是": 3299,
      "▁account": 3300,
      "未来": 3301,
      "▁non": 3302,
      "▁taɪm": 3303,
      "▁indust": 3304,
      "▁pian": 3305,
      "严重": 3306,
      "众人": 3307,
      "?\"": 3308,
      "▁brought": 3309,
      "▁ann": 3310,
      "▁Ne": 3311,
      "哎呀": 3312,
      "arily": 3313,
      "by": 3314,
      "这才": 3315,
      "的过程": 3316,
      "不行": 3317,
      "ː-": 3318,
      "专业": 3319,
      "▁Eng": 3320,
      "pped": 3321,
      "目前": 3322,
      "ister": 3323,
      "▁personal": 3324,
      "▁tw": 3325,
      "▁America": 3326,
      "▁issue": 3327,
      "的声音": 3328,
      "▁ist": 3329,
      "▁speak": 3330,
      "ches": 3331,
      "ph": 3332,
      "有关": 3333,
      "二零": 3334,
      "算是": 3335,
      "下一": 3336,
      "atic": 3337,
      "担心": 3338,
      "ify": 3339,
      "很有": 3340,
      "四十": 3341,
      "功能": 3342,
      "战斗": 3343,
      "chi": 3344,
      "▁mass": 3345,
      "怎么办": 3346,
      "▁words": 3347,
      "▁difficult": 3348,
      "▁design": 3349,
      "▁lɑ": 3350,
      "ential": 3351,
      "▁woman": 3352,
      "▁wɛl": 3353,
      "子里": 3354,
      "work": 3355,
      "收听": 3356,
      "▁stories": 3357,
      "利用": 3358,
      "▁finan": 3359,
      "▁hig": 3360,
      "▁figure": 3361,
      "▁building": 3362,
      "进了": 3363,
      "əti": 3364,
      "▁Some": 3365,
      "的心": 3366,
      "▁cust": 3367,
      "aching": 3368,
      "æst": 3369,
      "效果": 3370,
      "30": 3371,
      "pi": 3372,
      "▁music": 3373,
      "let": 3374,
      "地的": 3375,
      "amos": 3376,
      "ium": 3377,
      "ange": 3378,
      "xian": 3379,
      "员工": 3380,
      "▁watching": 3381,
      "▁anyone": 3382,
      "ides": 3383,
      "▁sex": 3384,
      "中间": 3385,
      "▁une": 3386,
      "▁black": 3387,
      "▁literally": 3388,
      "一眼": 3389,
      "▁xun": 3390,
      "icht": 3391,
      "▁must": 3392,
      "不多": 3393,
      "提升": 3394,
      "理论": 3395,
      "▁Ind": 3396,
      "▁ment": 3397,
      "▁brain": 3398,
      "time": 3399,
      "计算": 3400,
      "▁perform": 3401,
      "iron": 3402,
      "ænd": 3403,
      "▁rece": 3404,
      "▁tru": 3405,
      "旁边": 3406,
      "▁proper": 3407,
      "mənt": 3408,
      "范围": 3409,
      "感受": 3410,
      "我会": 3411,
      "▁fac": 3412,
      "联系": 3413,
      "基本上": 3414,
      "▁commun": 3415,
      "生意": 3416,
      "▁direct": 3417,
      "拥有": 3418,
      "共同": 3419,
      "▁ca": 3420,
      "▁particular": 3421,
      "道理": 3422,
      "眼前": 3423,
      "很好": 3424,
      "游戏": 3425,
      "坐在": 3426,
      "▁pɝ": 3427,
      "▁prɑ": 3428,
      "地说": 3429,
      "把他": 3430,
      "▁descri": 3431,
      "▁giving": 3432,
      "▁12": 3433,
      "▁takes": 3434,
      "别的": 3435,
      "感谢": 3436,
      "一道": 3437,
      "建筑": 3438,
      "造成": 3439,
      "▁gave": 3440,
      "没想到": 3441,
      "▁feels": 3442,
      "▁treat": 3443,
      "就说": 3444,
      "▁eight": 3445,
      "lls": 3446,
      "aɪz": 3447,
      "第一次": 3448,
      "▁rather": 3449,
      "▁parents": 3450,
      "▁ich": 3451,
      "判断": 3452,
      "▁York": 3453,
      "▁las": 3454,
      "aring": 3455,
      "ʊnd": 3456,
      "▁player": 3457,
      "北京": 3458,
      "建设": 3459,
      "ão": 3460,
      "▁como": 3461,
      "aɪd": 3462,
      "▁Mc": 3463,
      "▁Dan": 3464,
      "▁cli": 3465,
      "ante": 3466,
      "最近": 3467,
      "▁م": 3468,
      "ament": 3469,
      "脸色": 3470,
      "▁pour": 3471,
      "▁Cha": 3472,
      "ivid": 3473,
      "▁eff": 3474,
      "还没": 3475,
      "▁kuang": 3476,
      "▁och": 3477,
      "▁ou": 3478,
      "▁wel": 3479,
      "也不是": 3480,
      "▁quote": 3481,
      "之间的": 3482,
      "做到": 3483,
      "▁appe": 3484,
      "▁Dav": 3485,
      "12": 3486,
      "▁dɪd": 3487,
      "总是": 3488,
      "▁research": 3489,
      "即使": 3490,
      "▁third": 3491,
      "▁typ": 3492,
      "高的": 3493,
      "▁Ex": 3494,
      "能量": 3495,
      "▁ready": 3496,
      "▁position": 3497,
      "想象": 3498,
      "▁value": 3499,
      "在他": 3500,
      "▁ðɛm": 3501,
      "态度": 3502,
      "▁hang": 3503,
      "▁compet": 3504,
      "现实": 3505,
      "时期": 3506,
      "book": 3507,
      "掌握": 3508,
      "天的": 3509,
      "▁project": 3510,
      "房间": 3511,
      "▁others": 3512,
      "不错": 3513,
      "▁kw": 3514,
      "▁Ste": 3515,
      "那样": 3516,
      "一条": 3517,
      "▁peng": 3518,
      "▁neg": 3519,
      "厉害": 3520,
      "能不能": 3521,
      "真的是": 3522,
      "▁offic": 3523,
      "如果说": 3524,
      "往往": 3525,
      "year": 3526,
      "▁bar": 3527,
      "ration": 3528,
      "▁seven": 3529,
      "ɪp": 3530,
      "三年": 3531,
      "段时间": 3532,
      "表达": 3533,
      "▁crazy": 3534,
      "生的": 3535,
      "bre": 3536,
      "▁area": 3537,
      "▁AI": 3538,
      "lier": 3539,
      "▁Thank": 3540,
      "而已": 3541,
      "▁18": 3542,
      "了个": 3543,
      "nə": 3544,
      "彻底": 3545,
      "▁issues": 3546,
      "不起": 3547,
      "笑道": 3548,
      "▁Russ": 3549,
      "▁kao": 3550,
      "▁mult": 3551,
      "犯罪": 3552,
      "来自": 3553,
      "▁throw": 3554,
      "开口": 3555,
      "▁diao": 3556,
      "▁Rep": 3557,
      "▁doll": 3558,
      "omet": 3559,
      "▁naʊ": 3560,
      "▁favorite": 3561,
      "压力": 3562,
      "off": 3563,
      "创造": 3564,
      "▁attack": 3565,
      "错误": 3566,
      "▁knows": 3567,
      "ularly": 3568,
      "▁present": 3569,
      "主动": 3570,
      "是我": 3571,
      "aus": 3572,
      "▁lives": 3573,
      "ax": 3574,
      "兴趣": 3575,
      "▁impact": 3576,
      "部门": 3577,
      "笑着": 3578,
      "▁land": 3579,
      "fr": 3580,
      "▁custom": 3581,
      "消失": 3582,
      "iod": 3583,
      "▁kaɪnd": 3584,
      "▁emot": 3585,
      "见到": 3586,
      "▁Con": 3587,
      "▁wɛr": 3588,
      "▁becom": 3589,
      "huo": 3590,
      "更多": 3591,
      "▁Euro": 3592,
      "▁risk": 3593,
      "ɛnd": 3594,
      "这么多": 3595,
      "重点": 3596,
      "▁App": 3597,
      "▁surpr": 3598,
      "就有": 3599,
      "也好": 3600,
      "rib": 3601,
      "调查": 3602,
      "合作": 3603,
      "微微": 3604,
      "▁final": 3605,
      "打开": 3606,
      "yle": 3607,
      "yao": 3608,
      "特殊": 3609,
      "▁Ad": 3610,
      "▁lan": 3611,
      "▁cun": 3612,
      "方的": 3613,
      "因为他": 3614,
      "nes": 3615,
      "pend": 3616,
      "▁hong": 3617,
      "▁access": 3618,
      "利益": 3619,
      "vin": 3620,
      "也许": 3621,
      "角度": 3622,
      "▁ton": 3623,
      "▁telling": 3624,
      "安排": 3625,
      "体的": 3626,
      "▁large": 3627,
      "▁trust": 3628,
      "做出": 3629,
      "▁taken": 3630,
      "cent": 3631,
      "概念": 3632,
      "证明": 3633,
      "▁polic": 3634,
      "军队": 3635,
      "▁inside": 3636,
      "此刻": 3637,
      "▁teams": 3638,
      "▁benef": 3639,
      "orn": 3640,
      "ified": 3641,
      "必要": 3642,
      "mend": 3643,
      "显然": 3644,
      "这时候": 3645,
      "▁bɪn": 3646,
      "▁sleep": 3647,
      "vent": 3648,
      "▁career": 3649,
      "了吧": 3650,
      "有一些": 3651,
      "进来": 3652,
      "恢复": 3653,
      "▁phone": 3654,
      "iful": 3655,
      "▁pict": 3656,
      "▁prop": 3657,
      "永远": 3658,
      "将军": 3659,
      "▁tui": 3660,
      "pping": 3661,
      "▁ik": 3662,
      "ille": 3663,
      "▁lim": 3664,
      "▁env": 3665,
      "交易": 3666,
      "▁opportunity": 3667,
      "▁link": 3668,
      "一位": 3669,
      "▁weird": 3670,
      "法院": 3671,
      "arning": 3672,
      "权利": 3673,
      "▁based": 3674,
      "形式": 3675,
      "kets": 3676,
      "▁Ge": 3677,
      "消费": 3678,
      "▁más": 3679,
      "现在的": 3680,
      "医院": 3681,
      "▁period": 3682,
      "hic": 3683,
      "ión": 3684,
      "imate": 3685,
      "▁Tw": 3686,
      "块钱": 3687,
      "房子": 3688,
      "观察": 3689,
      "你想": 3690,
      "eder": 3691,
      "ails": 3692,
      "▁hy": 3693,
      "了一些": 3694,
      "更多的": 3695,
      "▁write": 3696,
      "过的": 3697,
      "▁meng": 3698,
      "▁himself": 3699,
      "▁hot": 3700,
      "▁cover": 3701,
      "▁death": 3702,
      "uth": 3703,
      "mo": 3704,
      "▁Was": 3705,
      "这时": 3706,
      "▁grand": 3707,
      "水平": 3708,
      "ills": 3709,
      "▁current": 3710,
      "dou": 3711,
      "因素": 3712,
      "▁fine": 3713,
      "▁worth": 3714,
      "一件": 3715,
      "独立": 3716,
      "▁kl": 3717,
      "▁200": 3718,
      "死亡": 3719,
      "▁moving": 3720,
      "ester": 3721,
      "4?": 3722,
      "考试": 3723,
      "▁mag": 3724,
      "rang": 3725,
      "ça": 3726,
      "▁tar": 3727,
      "ədʒ": 3728,
      "外面": 3729,
      "ʃu": 3730,
      "▁movie": 3731,
      "▁Podcast": 3732,
      "ɔl": 3733,
      "不可能": 3734,
      "ller": 3735,
      "▁excited": 3736,
      "不太": 3737,
      "超过": 3738,
      "▁Here": 3739,
      "这两个": 3740,
      "▁experien": 3741,
      "▁field": 3742,
      "shuo": 3743,
      "ker": 3744,
      "十五": 3745,
      "内的": 3746,
      "▁aren": 3747,
      "满足": 3748,
      "▁oper": 3749,
      "记忆": 3750,
      "yan": 3751,
      "▁putting": 3752,
      "随后": 3753,
      "从来": 3754,
      "的方式": 3755,
      "本书": 3756,
      "资源": 3757,
      "▁Ro": 3758,
      "▁ɛni": 3759,
      "ug": 3760,
      "▁president": 3761,
      "大多": 3762,
      "▁shows": 3763,
      "urch": 3764,
      "▁wait": 3765,
      "好好": 3766,
      "动作": 3767,
      "ʌtʃ": 3768,
      "▁va": 3769,
      "▁needed": 3770,
      "▁States": 3771,
      "痛苦": 3772,
      "▁shit": 3773,
      "又是": 3774,
      "▁hɝ": 3775,
      "高兴": 3776,
      "▁agree": 3777,
      "itions": 3778,
      "sy": 3779,
      "那我": 3780,
      "ability": 3781,
      "▁soon": 3782,
      "acter": 3783,
      "ese": 3784,
      "▁general": 3785,
      "rd": 3786,
      "ley": 3787,
      "▁continue": 3788,
      "千万": 3789,
      "哪些": 3790,
      "▁Any": 3791,
      "▁chance": 3792,
      "就没有": 3793,
      "哪儿": 3794,
      "▁mao": 3795,
      "ublic": 3796,
      "dden": 3797,
      "▁biggest": 3798,
      "依然": 3799,
      "par": 3800,
      "▁host": 3801,
      "▁explain": 3802,
      "not": 3803,
      "一个是": 3804,
      "似的": 3805,
      "▁role": 3806,
      "▁key": 3807,
      "▁hur": 3808,
      "家人": 3809,
      "不见": 3810,
      "▁kʌm": 3811,
      "这一点": 3812,
      "行了": 3813,
      "检查": 3814,
      "és": 3815,
      "▁longer": 3816,
      "▁Et": 3817,
      "▁En": 3818,
      "▁individ": 3819,
      "ged": 3820,
      "医生": 3821,
      "▁China": 3822,
      "▁piece": 3823,
      "还能": 3824,
      "▁fair": 3825,
      "▁tried": 3826,
      "之一": 3827,
      "这就": 3828,
      "▁extra": 3829,
      "reme": 3830,
      "▁Sc": 3831,
      "▁hæz": 3832,
      "在一": 3833,
      "▁profess": 3834,
      "部队": 3835,
      "▁Europe": 3836,
      "▁dev": 3837,
      "更是": 3838,
      "▁content": 3839,
      "这个是": 3840,
      "15": 3841,
      "原本": 3842,
      "▁cir": 3843,
      "▁goal": 3844,
      "路上": 3845,
      "▁concern": 3846,
      "也要": 3847,
      "仍然": 3848,
      "▁online": 3849,
      "那边": 3850,
      "百姓": 3851,
      "行政": 3852,
      "▁quickly": 3853,
      "▁bab": 3854,
      "十年": 3855,
      "▁Dr": 3856,
      "itter": 3857,
      "内部": 3858,
      "机构": 3859,
      "ead": 3860,
      "▁Are": 3861,
      "▁wanna": 3862,
      "▁ident": 3863,
      "▁wind": 3864,
      "模式": 3865,
      "▁earlier": 3866,
      "倒是": 3867,
      "▁arg": 3868,
      "ɪdʒ": 3869,
      "▁hoʊ": 3870,
      "持续": 3871,
      "了几": 3872,
      "▁cal": 3873,
      "ping": 3874,
      "▁om": 3875,
      "▁exist": 3876,
      "例子": 3877,
      "1.": 3878,
      "▁X": 3879,
      "▁bunch": 3880,
      "ido": 3881,
      "▁Will": 3882,
      "▁Qu": 3883,
      "ros": 3884,
      "跟我": 3885,
      "rael": 3886,
      "都可以": 3887,
      "cong": 3888,
      "得很": 3889,
      "▁rad": 3890,
      "▁bec": 3891,
      "内心": 3892,
      "▁towards": 3893,
      "有很多": 3894,
      "reci": 3895,
      "tern": 3896,
      "▁beautiful": 3897,
      "大了": 3898,
      "现场": 3899,
      "orld": 3900,
      "▁tax": 3901,
      "▁Pat": 3902,
      "仿佛": 3903,
      "讲的": 3904,
      "▁ground": 3905,
      "▁mother": 3906,
      "ery": 3907,
      "真实": 3908,
      "提高": 3909,
      "▁flo": 3910,
      "一阵": 3911,
      "▁ho": 3912,
      "取得": 3913,
      "▁With": 3914,
      "▁decision": 3915,
      "▁ækt": 3916,
      "的一种": 3917,
      "它们": 3918,
      "bed": 3919,
      "女孩": 3920,
      "jing": 3921,
      "复杂": 3922,
      "▁pull": 3923,
      "▁cred": 3924,
      "▁learning": 3925,
      "▁return": 3926,
      "说不": 3927,
      "训练": 3928,
      "中心": 3929,
      "成长": 3930,
      "▁writing": 3931,
      "▁imagine": 3932,
      "▁series": 3933,
      "▁Joe": 3934,
      "哪个": 3935,
      "以上": 3936,
      "门口": 3937,
      "cut": 3938,
      "提出": 3939,
      "▁track": 3940,
      "第四": 3941,
      "▁cao": 3942,
      "reen": 3943,
      "摇头": 3944,
      "说完": 3945,
      "▁cond": 3946,
      "▁tɔ": 3947,
      "▁auch": 3948,
      "▁hɪz": 3949,
      "▁fas": 3950,
      "ered": 3951,
      "▁West": 3952,
      "▁spend": 3953,
      "需求": 3954,
      "▁Biden": 3955,
      "▁ut": 3956,
      "▁simil": 3957,
      "▁involved": 3958,
      "的时候呢": 3959,
      "tend": 3960,
      "期间": 3961,
      "▁bed": 3962,
      "▁ahead": 3963,
      "▁ʃi": 3964,
      "▁Inst": 3965,
      "ico": 3966,
      "的地": 3967,
      "xiao": 3968,
      "ott": 3969,
      "ption": 3970,
      "了他": 3971,
      "就是你": 3972,
      "ait": 3973,
      "ked": 3974,
      "▁ʌs": 3975,
      "▁famil": 3976,
      "▁became": 3977,
      "▁Bu": 3978,
      "类的": 3979,
      "ʊn": 3980,
      "én": 3981,
      "ised": 3982,
      "有效": 3983,
      "不然": 3984,
      "▁你": 3985,
      "答案": 3986,
      "▁是": 3987,
      "出来了": 3988,
      "▁avail": 3989,
      "▁啊": 3990,
      "▁difference": 3991,
      "▁Israel": 3992,
      "业务": 3993,
      "▁sitting": 3994,
      "才是": 3995,
      "都没": 3996,
      "lin": 3997,
      "▁simple": 3998,
      "不想": 3999,
      "迅速": 4000,
      "参与": 4001,
      "bal": 4002,
      "▁glo": 4003,
      "iel": 4004,
      "llo": 4005,
      "for": 4006,
      "orry": 4007,
      "▁Dem": 4008,
      "▁Whi": 4009,
      "ca": 4010,
      "失败": 4011,
      "▁itself": 4012,
      "ndred": 4013,
      "val": 4014,
      "呢是": 4015,
      "▁red": 4016,
      "▁Ag": 4017,
      "发出": 4018,
      "质量": 4019,
      "cin": 4020,
      "▁strugg": 4021,
      "▁instead": 4022,
      "我们可以": 4023,
      "民族": 4024,
      "▁webs": 4025,
      "▁ʌðɝ": 4026,
      "团队": 4027,
      "看一下": 4028,
      "所谓的": 4029,
      "▁kʌ": 4030,
      "rem": 4031,
      "▁political": 4032,
      "ured": 4033,
      "物的": 4034,
      "▁known": 4035,
      "回家": 4036,
      "报告": 4037,
      "因为我": 4038,
      "几天": 4039,
      "的那": 4040,
      "反而": 4041,
      "arth": 4042,
      "zheng": 4043,
      "▁white": 4044,
      "▁Gr": 4045,
      "▁ɪntu": 4046,
      "ien": 4047,
      "型的": 4048,
      "▁beha": 4049,
      "▁dans": 4050,
      "直到": 4051,
      "kɪŋ": 4052,
      "▁door": 4053,
      "cl": 4054,
      "听说": 4055,
      "ækt": 4056,
      "▁football": 4057,
      "more": 4058,
      "▁quarter": 4059,
      "那里": 4060,
      "lor": 4061,
      "oss": 4062,
      "▁industry": 4063,
      "chu": 4064,
      "iam": 4065,
      "大人": 4066,
      "osp": 4067,
      "▁vot": 4068,
      "长期": 4069,
      "▁xiong": 4070,
      "机关": 4071,
      "哈哈": 4072,
      "▁touch": 4073,
      "▁including": 4074,
      "▁changed": 4075,
      "ulation": 4076,
      "▁к": 4077,
      "眼神": 4078,
      "名的": 4079,
      "▁pero": 4080,
      "▁net": 4081,
      "▁impro": 4082,
      "记住": 4083,
      "tu": 4084,
      "我们说": 4085,
      "巨大的": 4086,
      "唯一": 4087,
      "对着": 4088,
      "ience": 4089,
      "弟子": 4090,
      "▁eat": 4091,
      "▁ði": 4092,
      "irit": 4093,
      "▁Min": 4094,
      "幸福": 4095,
      "▁books": 4096,
      "是要": 4097,
      "▁middle": 4098,
      "积极": 4099,
      "视频": 4100,
      "上一": 4101,
      "▁Who": 4102,
      "urity": 4103,
      "▁thous": 4104,
      "▁kæ": 4105,
      "▁inde": 4106,
      "世纪": 4107,
      "在我": 4108,
      "打算": 4109,
      "▁beginning": 4110,
      "▁individual": 4111,
      "▁vol": 4112,
      "的老": 4113,
      "▁Und": 4114,
      "aul": 4115,
      "▁Australia": 4116,
      "▁crit": 4117,
      "▁suan": 4118,
      "承担": 4119,
      "cher": 4120,
      "费用": 4121,
      "对他": 4122,
      "▁attention": 4123,
      "▁strate": 4124,
      "▁sounds": 4125,
      "程序": 4126,
      "会议": 4127,
      "ʌv": 4128,
      "你这个": 4129,
      "▁wɪl": 4130,
      "of": 4131,
      "早就": 4132,
      "不一样": 4133,
      "▁orig": 4134,
      "▁rid": 4135,
      "kend": 4136,
      "▁jud": 4137,
      "▁cam": 4138,
      "语言": 4139,
      "▁interested": 4140,
      "劳动": 4141,
      "奇怪": 4142,
      "尤其是": 4143,
      "▁particularly": 4144,
      "情况下": 4145,
      "实验": 4146,
      "▁funny": 4147,
      "点了": 4148,
      "▁Det": 4149,
      "▁usually": 4150,
      "这样一个": 4151,
      "传统": 4152,
      "▁mis": 4153,
      "▁Ja": 4154,
      "men": 4155,
      "ell": 4156,
      "▁TV": 4157,
      "困难": 4158,
      "▁50": 4159,
      "▁å": 4160,
      "平台": 4161,
      "调整": 4162,
      "看到了": 4163,
      "▁yo": 4164,
      "▁lose": 4165,
      "走到": 4166,
      "了啊": 4167,
      "ctions": 4168,
      "▁jeg": 4169,
      "jie": 4170,
      "▁tool": 4171,
      "▁leaders": 4172,
      "而不是": 4173,
      "害怕": 4174,
      "▁ðɛrz": 4175,
      "▁wrote": 4176,
      "符合": 4177,
      "▁ceng": 4178,
      "朝着": 4179,
      "▁Also": 4180,
      "小心": 4181,
      "fer": 4182,
      "ped": 4183,
      "▁learned": 4184,
      "ites": 4185,
      "lish": 4186,
      "ift": 4187,
      "▁occ": 4188,
      "▁ça": 4189,
      "▁late": 4190,
      "▁weɪ": 4191,
      "ənz": 4192,
      "▁War": 4193,
      "ID": 4194,
      "事业": 4195,
      "▁lots": 4196,
      "拒绝": 4197,
      "ɔŋ": 4198,
      "安利": 4199,
      "的主": 4200,
      "▁David": 4201,
      "▁dad": 4202,
      "中央": 4203,
      "▁stɑ": 4204,
      "▁fail": 4205,
      "当年": 4206,
      "▁Where": 4207,
      "▁wife": 4208,
      "▁tom": 4209,
      "▁plat": 4210,
      "难以": 4211,
      "▁reading": 4212,
      "▁similar": 4213,
      "的高": 4214,
      "▁necessarily": 4215,
      "ube": 4216,
      "把这": 4217,
      "不再": 4218,
      "▁ɝ": 4219,
      "▁training": 4220,
      "▁review": 4221,
      "2、": 4222,
      "核心": 4223,
      "大部分": 4224,
      "versity": 4225,
      "办公": 4226,
      "我现在": 4227,
      "yes": 4228,
      "▁kr": 4229,
      "▁vir": 4230,
      "英国": 4231,
      "▁prim": 4232,
      "▁sou": 4233,
      "最大的": 4234,
      "oring": 4235,
      "▁port": 4236,
      "方案": 4237,
      "▁available": 4238,
      "的感觉": 4239,
      "han": 4240,
      "ners": 4241,
      "▁ult": 4242,
      "的啊": 4243,
      "有时候": 4244,
      "果然": 4245,
      "表情": 4246,
      "艺术": 4247,
      "▁These": 4248,
      "zhu": 4249,
      "▁higher": 4250,
      "haps": 4251,
      "▁aff": 4252,
      "是谁": 4253,
      "▁members": 4254,
      "▁places": 4255,
      "脑袋": 4256,
      "▁serious": 4257,
      "ume": 4258,
      "▁cet": 4259,
      "放弃": 4260,
      "吃饭": 4261,
      "▁dam": 4262,
      "▁finally": 4263,
      "bit": 4264,
      "资本": 4265,
      "ively": 4266,
      "▁code": 4267,
      "如果是": 4268,
      "▁practice": 4269,
      "▁hundred": 4270,
      "人在": 4271,
      "充满": 4272,
      "zhong": 4273,
      "领域": 4274,
      "几年": 4275,
      "到这里": 4276,
      "恐怖": 4277,
      "▁fol": 4278,
      "估计": 4279,
      "▁fire": 4280,
      "но": 4281,
      "▁waɪ": 4282,
      "讨论": 4283,
      "立即": 4284,
      "▁road": 4285,
      "都能": 4286,
      "▁subs": 4287,
      "▁anybody": 4288,
      "▁asking": 4289,
      "ults": 4290,
      "公司的": 4291,
      "意味": 4292,
      "姑娘": 4293,
      "ios": 4294,
      "上来": 4295,
      "▁environ": 4296,
      "ux": 4297,
      "aine": 4298,
      "▁send": 4299,
      "▁tam": 4300,
      "▁jump": 4301,
      "熟悉": 4302,
      "vo": 4303,
      "▁dro": 4304,
      "另一": 4305,
      "尽管": 4306,
      "lich": 4307,
      "mz": 4308,
      "出手": 4309,
      "▁corre": 4310,
      "妻子": 4311,
      "了下来": 4312,
      "▁fant": 4313,
      "▁wɪtʃ": 4314,
      "或许": 4315,
      "zui": 4316,
      "▁base": 4317,
      "ows": 4318,
      "itten": 4319,
      "▁supposed": 4320,
      "▁appreci": 4321,
      "▁о": 4322,
      "也不会": 4323,
      "ief": 4324,
      "▁round": 4325,
      "跟你": 4326,
      "▁dɪf": 4327,
      "▁city": 4328,
      "职业": 4329,
      "▁fur": 4330,
      "ivity": 4331,
      "百万": 4332,
      "▁technology": 4333,
      "yn": 4334,
      "sui": 4335,
      "逐渐": 4336,
      "odes": 4337,
      "istic": 4338,
      "dao": 4339,
      "其实是": 4340,
      "ək": 4341,
      "▁People": 4342,
      "▁dé": 4343,
      "▁built": 4344,
      "哪怕": 4345,
      "rodu": 4346,
      "特点": 4347,
      "不在": 4348,
      "跟他": 4349,
      "▁ang": 4350,
      "▁His": 4351,
      "▁problems": 4352,
      "经理": 4353,
      "▁likely": 4354,
      "爸爸": 4355,
      "▁terr": 4356,
      "▁price": 4357,
      "出现了": 4358,
      "▁ɪks": 4359,
      "明确": 4360,
      "不足": 4361,
      "▁Har": 4362,
      "ix": 4363,
      "麻烦": 4364,
      "enn": 4365,
      "▁numbers": 4366,
      "▁decided": 4367,
      "ains": 4368,
      "erc": 4369,
      "之后呢": 4370,
      "▁lab": 4371,
      "▁sudden": 4372,
      "现代": 4373,
      "带来": 4374,
      "0000": 4375,
      "ature": 4376,
      "案件": 4377,
      "eno": 4378,
      "▁Republic": 4379,
      "▁meɪk": 4380,
      "▁educ": 4381,
      "人呢": 4382,
      "ga": 4383,
      "集团": 4384,
      "rible": 4385,
      "掉了": 4386,
      "▁World": 4387,
      "这句话": 4388,
      "▁Pres": 4389,
      "▁那": 4390,
      "▁CO": 4391,
      "看起来": 4392,
      "▁porque": 4393,
      "就是在": 4394,
      "▁drink": 4395,
      "否则": 4396,
      "tic": 4397,
      "▁meɪ": 4398,
      "强调": 4399,
      "ito": 4400,
      "▁financial": 4401,
      "革命": 4402,
      "结合": 4403,
      "比赛": 4404,
      "ior": 4405,
      "设备": 4406,
      "▁vac": 4407,
      "▁bæk": 4408,
      "就是一个": 4409,
      "▁dest": 4410,
      "接触": 4411,
      "就是我们": 4412,
      "▁normal": 4413,
      "▁turned": 4414,
      "▁lou": 4415,
      "ʌz": 4416,
      "还有一个": 4417,
      "化的": 4418,
      "▁common": 4419,
      "家族": 4420,
      "▁dɪs": 4421,
      "沟通": 4422,
      "女性": 4423,
      "▁stri": 4424,
      "有着": 4425,
      "▁langu": 4426,
      "发生了": 4427,
      "ida": 4428,
      "right": 4429,
      "的话呢": 4430,
      "恐怕": 4431,
      "▁travel": 4432,
      "▁recently": 4433,
      "每个人": 4434,
      "▁culture": 4435,
      "ung": 4436,
      "▁father": 4437,
      "▁speaking": 4438,
      "看向": 4439,
      "敌人": 4440,
      "士兵": 4441,
      "▁truth": 4442,
      "还会": 4443,
      "说法": 4444,
      "▁website": 4445,
      "▁hands": 4446,
      "▁chuang": 4447,
      "国际": 4448,
      "军的": 4449,
      "ndʒ": 4450,
      "▁multi": 4451,
      "▁está": 4452,
      "尸体": 4453,
      "use": 4454,
      "▁anyway": 4455,
      "den": 4456,
      "了一声": 4457,
      "的内容": 4458,
      "anks": 4459,
      "很大": 4460,
      "ham": 4461,
      "只不过": 4462,
      "▁realize": 4463,
      "而言": 4464,
      "▁dead": 4465,
      "说着": 4466,
      "不上": 4467,
      "tong": 4468,
      "▁perspect": 4469,
      "自身": 4470,
      "bɝ": 4471,
      "1、": 4472,
      "网络": 4473,
      "▁dom": 4474,
      "气息": 4475,
      "ɔɪ": 4476,
      "▁sell": 4477,
      "▁police": 4478,
      "工具": 4479,
      "仔细": 4480,
      "意见": 4481,
      "一把": 4482,
      "感情": 4483,
      "作品": 4484,
      "izing": 4485,
      "ɛvɝ": 4486,
      "休息": 4487,
      "行的": 4488,
      "笑了": 4489,
      "▁priv": 4490,
      "▁YouT": 4491,
      "▁match": 4492,
      "每一个": 4493,
      "ges": 4494,
      "平时": 4495,
      "一块": 4496,
      "今年": 4497,
      "他会": 4498,
      "▁god": 4499,
      "成的": 4500,
      "▁feed": 4501,
      "寻找": 4502,
      "只见": 4503,
      "数字": 4504,
      "kan": 4505,
      "ades": 4506,
      "答应": 4507,
      "▁anymore": 4508,
      "▁race": 4509,
      "小子": 4510,
      "antly": 4511,
      "▁anal": 4512,
      "的工作": 4513,
      "案例": 4514,
      "▁cuo": 4515,
      "orrow": 4516,
      "紧张": 4517,
      "▁local": 4518,
      "▁Char": 4519,
      "想着": 4520,
      "now": 4521,
      "伤害": 4522,
      "故意": 4523,
      "▁clai": 4524,
      "▁totally": 4525,
      "ggest": 4526,
      "交流": 4527,
      "▁possib": 4528,
      "▁weekend": 4529,
      "ho": 4530,
      "lex": 4531,
      "▁tie": 4532,
      "对象": 4533,
      "▁rate": 4534,
      "明的": 4535,
      "aight": 4536,
      "就是我": 4537,
      "▁dog": 4538,
      "▁character": 4539,
      "astic": 4540,
      "▁swe": 4541,
      "▁pao": 4542,
      "入了": 4543,
      "利润": 4544,
      "▁loved": 4545,
      "ference": 4546,
      "oke": 4547,
      "▁imm": 4548,
      "让他们": 4549,
      "5,": 4550,
      "▁slow": 4551,
      "如同": 4552,
      "▁Ger": 4553,
      "明天": 4554,
      "zen": 4555,
      "▁email": 4556,
      "一笑": 4557,
      "▁suggest": 4558,
      "▁office": 4559,
      "第三个": 4560,
      "▁gives": 4561,
      "回事": 4562,
      "0.": 4563,
      "▁ä": 4564,
      "现象": 4565,
      "大家都": 4566,
      "双方": 4567,
      "▁ال": 4568,
      "▁fund": 4569,
      "的神": 4570,
      "五年": 4571,
      "lig": 4572,
      "▁anim": 4573,
      "▁shoot": 4574,
      "足够": 4575,
      "专门": 4576,
      "这件事情": 4577,
      "▁Fran": 4578,
      "▁Democr": 4579,
      "▁box": 4580,
      "一会儿": 4581,
      "▁opin": 4582,
      "▁fɝ": 4583,
      "记录": 4584,
      "vis": 4585,
      "的样子": 4586,
      "əf": 4587,
      "是怎么": 4588,
      "▁Pet": 4589,
      "▁author": 4590,
      "就把": 4591,
      "开心": 4592,
      "地说道": 4593,
      "外的": 4594,
      "这些人": 4595,
      "ky": 4596,
      "一只": 4597,
      "əst": 4598,
      "medi": 4599,
      "面上": 4600,
      "商业": 4601,
      "▁Your": 4602,
      "这个问题": 4603,
      "▁soci": 4604,
      "▁please": 4605,
      "▁respect": 4606,
      "▁и": 4607,
      "▁bou": 4608,
      "▁eyes": 4609,
      "▁safe": 4610,
      "不动": 4611,
      "va": 4612,
      "▁bir": 4613,
      "▁obs": 4614,
      "ama": 4615,
      "su": 4616,
      "▁för": 4617,
      "观点": 4618,
      "ression": 4619,
      "之上": 4620,
      "▁changes": 4621,
      "ination": 4622,
      "mber": 4623,
      "▁fit": 4624,
      "▁service": 4625,
      "mmer": 4626,
      "上海": 4627,
      "引起": 4628,
      "竞争": 4629,
      "命令": 4630,
      "无数": 4631,
      "▁YouTube": 4632,
      "伙伴": 4633,
      "修炼": 4634,
      "▁Tom": 4635,
      "小姐": 4636,
      "cture": 4637,
      "verse": 4638,
      "▁action": 4639,
      "down": 4640,
      "▁Twitter": 4641,
      "▁他": 4642,
      "▁deb": 4643,
      "应的": 4644,
      "怀疑": 4645,
      "▁incredible": 4646,
      "▁recom": 4647,
      "▁lʊk": 4648,
      "▁mal": 4649,
      "▁kang": 4650,
      "itional": 4651,
      "▁straight": 4652,
      "盯着": 4653,
      "▁Did": 4654,
      "ра": 4655,
      "去看": 4656,
      "稍微": 4657,
      "地看着": 4658,
      "ging": 4659,
      "▁requi": 4660,
      "等人": 4661,
      "▁huai": 4662,
      "▁mou": 4663,
      "不如": 4664,
      "action": 4665,
      "像是": 4666,
      "谢谢": 4667,
      "▁ideas": 4668,
      "fan": 4669,
      "事件": 4670,
      "同意": 4671,
      "mən": 4672,
      "分别": 4673,
      "▁sch": 4674,
      "正好": 4675,
      "▁ability": 4676,
      "▁tour": 4677,
      "ть": 4678,
      "əbəl": 4679,
      "aire": 4680,
      "让我们": 4681,
      "hie": 4682,
      "女子": 4683,
      "▁drive": 4684,
      "▁ir": 4685,
      "▁kom": 4686,
      "出现在": 4687,
      "附近": 4688,
      "gar": 4689,
      "▁的": 4690,
      "有多": 4691,
      "iant": 4692,
      "room": 4693,
      "简直": 4694,
      "▁comfort": 4695,
      "▁pei": 4696,
      "▁recog": 4697,
      "▁kʊd": 4698,
      "▁д": 4699,
      "无比": 4700,
      "▁bien": 4701,
      "▁starts": 4702,
      "那这个": 4703,
      "▁ɔlsoʊ": 4704,
      "▁environment": 4705,
      "ding": 4706,
      "指挥": 4707,
      "证据": 4708,
      "日子": 4709,
      "100": 4710,
      "▁platform": 4711,
      "▁brand": 4712,
      "▁fear": 4713,
      "verage": 4714,
      "hr": 4715,
      "快速": 4716,
      "▁court": 4717,
      "æl": 4718,
      "▁reasons": 4719,
      "▁bott": 4720,
      "▁Lord": 4721,
      "对我": 4722,
      "unt": 4723,
      "身后": 4724,
      "▁path": 4725,
      "agram": 4726,
      "六十": 4727,
      "也不知道": 4728,
      "the": 4729,
      "轻轻": 4730,
      "杀了": 4731,
      "▁rul": 4732,
      "▁sever": 4733,
      "评价": 4734,
      "▁reality": 4735,
      "▁sɝ": 4736,
      "你知道": 4737,
      "▁psy": 4738,
      "▁thoughts": 4739,
      "▁party": 4740,
      "18": 4741,
      "wang": 4742,
      "ples": 4743,
      "▁specific": 4744,
      "icks": 4745,
      "文件": 4746,
      "▁signific": 4747,
      "申请": 4748,
      "见过": 4749,
      "▁lea": 4750,
      "▁positive": 4751,
      "▁college": 4752,
      "ters": 4753,
      "ino": 4754,
      "ʊl": 4755,
      "损失": 4756,
      "采用": 4757,
      "▁comb": 4758,
      "天地": 4759,
      "▁stress": 4760,
      "▁El": 4761,
      "ffe": 4762,
      "土地": 4763,
      "简单的": 4764,
      "zuo": 4765,
      "▁card": 4766,
      "▁emplo": 4767,
      "▁gʊd": 4768,
      "五个": 4769,
      "物质": 4770,
      "▁Int": 4771,
      "▁tend": 4772,
      "▁Hey": 4773,
      "▁study": 4774,
      "vered": 4775,
      "light": 4776,
      "▁ðoʊz": 4777,
      "地位": 4778,
      "感觉到": 4779,
      "警察": 4780,
      "reg": 4781,
      "资料": 4782,
      "▁shot": 4783,
      "▁əg": 4784,
      "夫人": 4785,
      "大多数": 4786,
      "作者": 4787,
      "师傅": 4788,
      "ledge": 4789,
      "男子": 4790,
      "所以我们": 4791,
      "政策": 4792,
      "肯定是": 4793,
      "▁van": 4794,
      "▁qiao": 4795,
      "▁Mo": 4796,
      "▁'": 4797,
      "▁Sm": 4798,
      "才会": 4799,
      "hil": 4800,
      "▁aware": 4801,
      "再说": 4802,
      "▁deli": 4803,
      "成立": 4804,
      "你怎么": 4805,
      "有所": 4806,
      "被人": 4807,
      "▁hol": 4808,
      "▁bigger": 4809,
      "▁Brit": 4810,
      "你自己": 4811,
      "你这": 4812,
      "▁tuo": 4813,
      "▁perhaps": 4814,
      "lu": 4815,
      "丈夫": 4816,
      "矛盾": 4817,
      "▁understanding": 4818,
      "▁sea": 4819,
      "太阳": 4820,
      "我看": 4821,
      "ɪti": 4822,
      "▁evidence": 4823,
      "也很": 4824,
      "的不": 4825,
      "▁voice": 4826,
      "强者": 4827,
      "追求": 4828,
      "aɪn": 4829,
      "liu": 4830,
      "hui": 4831,
      "ен": 4832,
      "保险": 4833,
      "的关系": 4834,
      "汽车": 4835,
      "针对": 4836,
      "▁weren": 4837,
      "创业": 4838,
      "学会": 4839,
      "一下子": 4840,
      "jiang": 4841,
      "aged": 4842,
      "eɪʃən": 4843,
      "▁listeners": 4844,
      "▁ended": 4845,
      "term": 4846,
      "▁milit": 4847,
      "最高": 4848,
      "差不多": 4849,
      "▁Par": 4850,
      "lect": 4851,
      "ɪtəl": 4852,
      "▁sat": 4853,
      "▁actual": 4854,
      "▁save": 4855,
      "所以我": 4856,
      "▁Ho": 4857,
      "吸引": 4858,
      "▁oʊn": 4859,
      "什么时候": 4860,
      "▁welcome": 4861,
      "▁sens": 4862,
      "amente": 4863,
      "▁among": 4864,
      "▁tit": 4865,
      "若是": 4866,
      "期的": 4867,
      "印象": 4868,
      "▁House": 4869,
      "▁然后": 4870,
      "▁model": 4871,
      "ances": 4872,
      "ources": 4873,
      "▁bal": 4874,
      "▁viol": 4875,
      "这一次": 4876,
      "ɪʃ": 4877,
      "一片": 4878,
      "体验": 4879,
      "ро": 4880,
      "的好": 4881,
      "▁phot": 4882,
      "限制": 4883,
      "▁film": 4884,
      "依旧": 4885,
      "▁Donald": 4886,
      "▁bɪt": 4887,
      "▁Wel": 4888,
      "实施": 4889,
      "快乐": 4890,
      "▁blood": 4891,
      "▁prin": 4892,
      "昨天": 4893,
      "▁artic": 4894,
      "培养": 4895,
      "理由": 4896,
      "的意思": 4897,
      "▁defense": 4898,
      "ür": 4899,
      "▁ourselves": 4900,
      "esterday": 4901,
      "仅仅": 4902,
      "▁perspective": 4903,
      "文章": 4904,
      "vert": 4905,
      "这也是": 4906,
      "▁moʊ": 4907,
      "称为": 4908,
      "▁leng": 4909,
      "▁hom": 4910,
      "▁consider": 4911,
      "та": 4912,
      "nel": 4913,
      "不断地": 4914,
      "▁sorry": 4915,
      "细胞": 4916,
      "▁Look": 4917,
      "▁ən": 4918,
      "那个时候": 4919,
      "▁clos": 4920,
      "▁pues": 4921,
      "通常": 4922,
      "品牌": 4923,
      "▁message": 4924,
      "▁Geor": 4925,
      "▁cannot": 4926,
      "VID": 4927,
      "的方法": 4928,
      "不出": 4929,
      "▁several": 4930,
      "拿着": 4931,
      "情感": 4932,
      "▁Thanks": 4933,
      "əp": 4934,
      "毫无": 4935,
      "对手": 4936,
      "▁essentially": 4937,
      "▁versus": 4938,
      "▁trade": 4939,
      "干嘛": 4940,
      "放心": 4941,
      "采取": 4942,
      "▁First": 4943,
      "▁gun": 4944,
      "▁nao": 4945,
      "▁prep": 4946,
      "纷纷": 4947,
      "没有任何": 4948,
      "有可能": 4949,
      "▁sen": 4950,
      "▁offer": 4951,
      "mi": 4952,
      "▁eu": 4953,
      "军事": 4954,
      "过程中": 4955,
      "▁lay": 4956,
      "亲自": 4957,
      "▁hop": 4958,
      "的原因": 4959,
      "这是一个": 4960,
      "▁sɛd": 4961,
      "▁hɑ": 4962,
      "▁baby": 4963,
      "hel": 4964,
      "▁16": 4965,
      "▁growing": 4966,
      "武器": 4967,
      "适合": 4968,
      "▁cy": 4969,
      "一开始": 4970,
      "bəl": 4971,
      "jæ": 4972,
      "por": 4973,
      "jian": 4974,
      "▁fou": 4975,
      "attle": 4976,
      "好吧": 4977,
      "▁Apple": 4978,
      "▁disc": 4979,
      "罗斯": 4980,
      "iment": 4981,
      "一脸": 4982,
      "▁guest": 4983,
      "我还": 4984,
      "疾病": 4985,
      "▁approach": 4986,
      "最好": 4987,
      "我和": 4988,
      "的确": 4989,
      "已经是": 4990,
      "ising": 4991,
      "级的": 4992,
      "▁ɛv": 4993,
      "值得": 4994,
      "没有什么": 4995,
      "▁Bar": 4996,
      "▁science": 4997,
      "▁target": 4998,
      "▁beat": 4999,
      "▁picture": 5000,
      "za": 5001,
      "hael": 5002,
      "操作": 5003,
      "▁rac": 5004,
      "▁remind": 5005,
      "开发": 5006,
      "当初": 5007,
      "▁tough": 5008,
      "意味着": 5009,
      "artment": 5010,
      "资金": 5011,
      "pɝ": 5012,
      "这件事": 5013,
      "▁President": 5014,
      "sk": 5015,
      "这样的一个": 5016,
      "▁caus": 5017,
      "▁temp": 5018,
      "▁til": 5019,
      "▁doc": 5020,
      "▁bur": 5021,
      "▁countries": 5022,
      "▁dʌz": 5023,
      "▁cry": 5024,
      "往下": 5025,
      "▁brother": 5026,
      "▁و": 5027,
      "▁æktʃu": 5028,
      "体系": 5029,
      "▁pred": 5030,
      "选项": 5031,
      "▁board": 5032,
      "也在": 5033,
      "▁Matt": 5034,
      "lv": 5035,
      "学的": 5036,
      "▁40": 5037,
      "强大": 5038,
      "听了": 5039,
      "▁subscri": 5040,
      "这块": 5041,
      "▁till": 5042,
      "战略": 5043,
      "▁South": 5044,
      "就被": 5045,
      "▁chun": 5046,
      "度的": 5047,
      "长老": 5048,
      "acher": 5049,
      "手中": 5050,
      "课程": 5051,
      "▁clearly": 5052,
      "他又": 5053,
      "▁language": 5054,
      "▁nicht": 5055,
      "措施": 5056,
      "每次": 5057,
      "▁circ": 5058,
      "▁elect": 5059,
      "▁immedi": 5060,
      "烈的": 5061,
      "进攻": 5062,
      "▁Col": 5063,
      "2.": 5064,
      "了两": 5065,
      "▁mʌtʃ": 5066,
      "变成了": 5067,
      "nal": 5068,
      "联网": 5069,
      "BC": 5070,
      "手里": 5071,
      "ained": 5072,
      "▁further": 5073,
      "究竟": 5074,
      "▁election": 5075,
      "▁Ob": 5076,
      "▁este": 5077,
      "▁text": 5078,
      "十八": 5079,
      "▁pod": 5080,
      "同学们": 5081,
      "但是我": 5082,
      "避免": 5083,
      "▁accept": 5084,
      "▁Paul": 5085,
      "▁equ": 5086,
      "错了": 5087,
      "▁Instagram": 5088,
      "imately": 5089,
      "呼吸": 5090,
      "eɪt": 5091,
      "ply": 5092,
      "vɪn": 5093,
      "▁cop": 5094,
      "▁tem": 5095,
      "势力": 5096,
      "统一": 5097,
      "▁forget": 5098,
      "涉及": 5099,
      "ograp": 5100,
      "▁influ": 5101,
      "▁Gu": 5102,
      "制造": 5103,
      "▁Friday": 5104,
      "▁journey": 5105,
      "amed": 5106,
      "书记": 5107,
      "不由": 5108,
      "公子": 5109,
      "▁dream": 5110,
      "▁Tod": 5111,
      "一定是": 5112,
      "▁policy": 5113,
      "恐惧": 5114,
      "稳定": 5115,
      "▁fix": 5116,
      "▁defe": 5117,
      "år": 5118,
      "zhang": 5119,
      "erson": 5120,
      "▁investig": 5121,
      "▁mist": 5122,
      "▁cases": 5123,
      "令人": 5124,
      "▁ah": 5125,
      "去找": 5126,
      "规模": 5127,
      "总结": 5128,
      "杀人": 5129,
      "认知": 5130,
      "财务": 5131,
      "esome": 5132,
      "突破": 5133,
      "▁stat": 5134,
      "▁dun": 5135,
      "▁growth": 5136,
      "▁continu": 5137,
      "▁Jack": 5138,
      "的力量": 5139,
      "▁church": 5140,
      "在地": 5141,
      "电视": 5142,
      "大家好": 5143,
      "▁created": 5144,
      "▁boy": 5145,
      "▁shop": 5146,
      "hood": 5147,
      "▁Cal": 5148,
      "▁deg": 5149,
      "sible": 5150,
      "hips": 5151,
      "这么一个": 5152,
      "11": 5153,
      "▁weight": 5154,
      "子上": 5155,
      "▁Again": 5156,
      "相互": 5157,
      "▁pray": 5158,
      "▁recommend": 5159,
      "▁coll": 5160,
      "ès": 5161,
      "这个东西": 5162,
      "▁jag": 5163,
      "▁pen": 5164,
      "▁mang": 5165,
      "▁alle": 5166,
      "oun": 5167,
      "▁dann": 5168,
      "▁Mike": 5169,
      "▁dark": 5170,
      "▁percent": 5171,
      "▁Mr": 5172,
      "时的": 5173,
      "▁tout": 5174,
      "哥哥": 5175,
      "▁spot": 5176,
      "▁hus": 5177,
      "▁mer": 5178,
      "▁stage": 5179,
      "会计": 5180,
      "警方": 5181,
      "减少": 5182,
      "▁Her": 5183,
      "性格": 5184,
      "▁disco": 5185,
      "▁dollars": 5186,
      "▁wir": 5187,
      "▁table": 5188,
      "合理": 5189,
      "ady": 5190,
      "说什么": 5191,
      "别人的": 5192,
      "孩子的": 5193,
      "▁COVID": 5194,
      "▁yesterday": 5195,
      "成就": 5196,
      "智慧": 5197,
      "▁Even": 5198,
      "动的": 5199,
      "▁Of": 5200,
      "了出来": 5201,
      "气的": 5202,
      "though": 5203,
      "tre": 5204,
      "没有人": 5205,
      "一定会": 5206,
      "cked": 5207,
      "▁credit": 5208,
      "▁pressure": 5209,
      "规则": 5210,
      "▁mɑ": 5211,
      "欧洲": 5212,
      "▁State": 5213,
      "▁version": 5214,
      "结婚": 5215,
      "▁Face": 5216,
      "▁moved": 5217,
      "▁fly": 5218,
      "▁nos": 5219,
      "▁entre": 5220,
      "知道了": 5221,
      "逻辑": 5222,
      "主要是": 5223,
      "区别": 5224,
      "背后": 5225,
      "▁meant": 5226,
      "这个地方": 5227,
      "▁mais": 5228,
      "dy": 5229,
      "▁potential": 5230,
      "回头": 5231,
      "告诉你": 5232,
      "▁extreme": 5233,
      "食物": 5234,
      "band": 5235,
      "▁fill": 5236,
      "hou": 5237,
      "▁25": 5238,
      "gz": 5239,
      "今天的": 5240,
      "yuan": 5241,
      "太太": 5242,
      "ground": 5243,
      "ica": 5244,
      "▁dru": 5245,
      "ː/": 5246,
      "微信": 5247,
      "▁по": 5248,
      "当你": 5249,
      "dz": 5250,
      "▁clean": 5251,
      "▁oʊvɝ": 5252,
      "▁coach": 5253,
      "推荐": 5254,
      "▁sold": 5255,
      "全国": 5256,
      "少年": 5257,
      "lebr": 5258,
      "▁communic": 5259,
      "▁wall": 5260,
      "▁By": 5261,
      "▁written": 5262,
      "是一种": 5263,
      "▁spent": 5264,
      "他对": 5265,
      "也能": 5266,
      "cious": 5267,
      "双手": 5268,
      "▁episodes": 5269,
      "asure": 5270,
      "erve": 5271,
      "帝国": 5272,
      "str": 5273,
      "就可以了": 5274,
      "这话": 5275,
      "▁parts": 5276,
      "做好": 5277,
      "用于": 5278,
      "▁billion": 5279,
      "▁Michael": 5280,
      "aba": 5281,
      "▁trou": 5282,
      "曹操": 5283,
      "▁affect": 5284,
      "▁chat": 5285,
      "之内": 5286,
      "▁Men": 5287,
      "我自己": 5288,
      "▁Ukr": 5289,
      "▁helps": 5290,
      "▁result": 5291,
      "没什么": 5292,
      "yond": 5293,
      "▁girl": 5294,
      "iction": 5295,
      "不及": 5296,
      "德国": 5297,
      "赚钱": 5298,
      "▁Good": 5299,
      "优势": 5300,
      "▁near": 5301,
      "aff": 5302,
      "从而": 5303,
      "▁advice": 5304,
      "miss": 5305,
      "▁spirit": 5306,
      "pro": 5307,
      "▁ʌm": 5308,
      "互联网": 5309,
      "æŋ": 5310,
      "▁term": 5311,
      "▁folks": 5312,
      "bor": 5313,
      "uck": 5314,
      "fa": 5315,
      "▁Ben": 5316,
      "ox": 5317,
      "转身": 5318,
      "ators": 5319,
      "▁powerful": 5320,
      "▁trial": 5321,
      "▁Welcome": 5322,
      "mon": 5323,
      "是非常": 5324,
      "▁nature": 5325,
      "▁threat": 5326,
      "▁Sam": 5327,
      "▁tur": 5328,
      "最好的": 5329,
      "pre": 5330,
      "但是他": 5331,
      "ency": 5332,
      "▁draw": 5333,
      "▁teɪk": 5334,
      "怎样": 5335,
      "▁vict": 5336,
      "▁Part": 5337,
      "一家": 5338,
      "▁paper": 5339,
      "▁hɪm": 5340,
      "十万": 5341,
      "▁economy": 5342,
      "ɛlf": 5343,
      "emic": 5344,
      "▁inf": 5345,
      "手段": 5346,
      "▁Somet": 5347,
      "▁nine": 5348,
      "▁protect": 5349,
      "▁kept": 5350,
      "bert": 5351,
      "▁м": 5352,
      "可怕": 5353,
      "不够": 5354,
      "点了点头": 5355,
      "▁Chris": 5356,
      "▁din": 5357,
      "的生活": 5358,
      "3.": 5359,
      "个月": 5360,
      "做什么": 5361,
      "▁purp": 5362,
      "▁former": 5363,
      "处于": 5364,
      "动物": 5365,
      "wan": 5366,
      "等到": 5367,
      "▁meaning": 5368,
      "很多的": 5369,
      "▁muy": 5370,
      "允许": 5371,
      "境界": 5372,
      "▁Ant": 5373,
      "▁bɪg": 5374,
      "则是": 5375,
      "▁Hi": 5376,
      "ek": 5377,
      "分为": 5378,
      "财产": 5379,
      "▁mit": 5380,
      "ey": 5381,
      "▁Our": 5382,
      "他一": 5383,
      "eth": 5384,
      "▁mur": 5385,
      "就这样": 5386,
      "加入": 5387,
      "aging": 5388,
      "爱的": 5389,
      "▁comment": 5390,
      "▁Sec": 5391,
      "bian": 5392,
      "iff": 5393,
      "反对": 5394,
      "读书": 5395,
      "得了": 5396,
      "多年": 5397,
      "▁summer": 5398,
      "▁behavi": 5399,
      "很大的": 5400,
      "老爷": 5401,
      "承认": 5402,
      "ðə": 5403,
      "三百": 5404,
      "二人": 5405,
      "忍不住": 5406,
      "▁soft": 5407,
      "法的": 5408,
      "必须要": 5409,
      "▁mill": 5410,
      "患者": 5411,
      "wi": 5412,
      "▁appreciate": 5413,
      "▁fans": 5414,
      "▁mas": 5415,
      "▁lɛ": 5416,
      "▁equi": 5417,
      "成员": 5418,
      "▁pack": 5419,
      "第二天": 5420,
      "pir": 5421,
      "▁Sha": 5422,
      "你去": 5423,
      "了一眼": 5424,
      "重的": 5425,
      "icking": 5426,
      "▁broad": 5427,
      "一听": 5428,
      "本质": 5429,
      "飞机": 5430,
      "ached": 5431,
      "▁recogni": 5432,
      "▁cat": 5433,
      "200": 5434,
      "▁prot": 5435,
      "ients": 5436,
      "4.": 5437,
      "▁kun": 5438,
      "▁histor": 5439,
      "▁Get": 5440,
      "他要": 5441,
      "收益": 5442,
      "▁div": 5443,
      "xin": 5444,
      "动了": 5445,
      "用了": 5446,
      "▁redu": 5447,
      "▁,": 5448,
      "▁alone": 5449,
      "▁lif": 5450,
      "load": 5451,
      "意的": 5452,
      "▁push": 5453,
      "lla": 5454,
      "什么样的": 5455,
      "ording": 5456,
      "发挥": 5457,
      "国内": 5458,
      "▁chou": 5459,
      "▁campai": 5460,
      "▁massive": 5461,
      "出了一": 5462,
      "提到": 5463,
      "但他": 5464,
      "强大的": 5465,
      "▁notes": 5466,
      "秘密": 5467,
      "一直在": 5468,
      "显得": 5469,
      "ifically": 5470,
      "BA": 5471,
      "以来": 5472,
      "支付": 5473,
      "构成": 5474,
      "▁James": 5475,
      "起身": 5476,
      "▁Es": 5477,
      "义务": 5478,
      "缓缓": 5479,
      "▁paid": 5480,
      "最大": 5481,
      "▁simply": 5482,
      "综合": 5483,
      "音乐": 5484,
      "是他": 5485,
      "▁catch": 5486,
      "▁following": 5487,
      "▁kinds": 5488,
      "各个": 5489,
      "就是这个": 5490,
      "强的": 5491,
      "利的": 5492,
      "ush": 5493,
      "▁worry": 5494,
      "▁healthy": 5495,
      "▁military": 5496,
      "死的": 5497,
      "▁minute": 5498,
      "▁17": 5499,
      "▁security": 5500,
      "▁willing": 5501,
      "▁conte": 5502,
      "▁celebr": 5503,
      "ware": 5504,
      "大哥": 5505,
      "▁meeting": 5506,
      "▁era": 5507,
      "jia": 5508,
      "可惜": 5509,
      "之所以": 5510,
      "集中": 5511,
      "▁rais": 5512,
      "ki": 5513,
      "宇宙": 5514,
      "qing": 5515,
      "▁[": 5516,
      "resent": 5517,
      "▁hate": 5518,
      "▁town": 5519,
      "ɪks": 5520,
      "▁decis": 5521,
      "因为你": 5522,
      "家长": 5523,
      "生气": 5524,
      "▁init": 5525,
      "十一": 5526,
      "很少": 5527,
      "年龄": 5528,
      "▁throughout": 5529,
      "olution": 5530,
      "数量": 5531,
      "爷爷": 5532,
      "▁Wal": 5533,
      "▁prior": 5534,
      "▁loss": 5535,
      "ressed": 5536,
      "你也": 5537,
      "mas": 5538,
      "时刻": 5539,
      "soci": 5540,
      "▁tri": 5541,
      "16": 5542,
      "都被": 5543,
      "说到": 5544,
      "▁lower": 5545,
      "▁Facebook": 5546,
      "一千": 5547,
      "▁sports": 5548,
      "irm": 5549,
      "▁kuo": 5550,
      "▁NF": 5551,
      "林峰": 5552,
      "ʌf": 5553,
      "漂亮": 5554,
      "空中": 5555,
      "▁English": 5556,
      "确认": 5557,
      "ressive": 5558,
      "▁eventually": 5559,
      "▁eye": 5560,
      "ɪri": 5561,
      "小说": 5562,
      "营养": 5563,
      "债务": 5564,
      "▁ɪmp": 5565,
      "▁laun": 5566,
      "相当于": 5567,
      "形象": 5568,
      "和他": 5569,
      "爆发": 5570,
      "青年": 5571,
      "▁somewhere": 5572,
      "▁products": 5573,
      "两种": 5574,
      "咨询": 5575,
      "æm": 5576,
      "道德": 5577,
      "▁choose": 5578,
      "▁natural": 5579,
      "▁gra": 5580,
      "▁Per": 5581,
      "▁partner": 5582,
      "liang": 5583,
      "erial": 5584,
      "购买": 5585,
      "随便": 5586,
      "▁Net": 5587,
      "▁breat": 5588,
      "ource": 5589,
      "▁birth": 5590,
      "▁fem": 5591,
      "这么一": 5592,
      "公安": 5593,
      "▁wild": 5594,
      "▁mental": 5595,
      "▁sus": 5596,
      "留下": 5597,
      "▁mir": 5598,
      "ban": 5599,
      "提醒": 5600,
      "▁successful": 5601,
      "iver": 5602,
      "▁好": 5603,
      "正式": 5604,
      "▁respond": 5605,
      "▁total": 5606,
      "优秀": 5607,
      "做一个": 5608,
      "▁ɛvri": 5609,
      "▁hei": 5610,
      "看得": 5611,
      "什么的": 5612,
      "就开始": 5613,
      "用户": 5614,
      "oid": 5615,
      "ined": 5616,
      "▁City": 5617,
      "▁ra": 5618,
      "要么": 5619,
      "▁inj": 5620,
      "bao": 5621,
      "不说": 5622,
      "enty": 5623,
      "▁helping": 5624,
      "▁physical": 5625,
      "类似": 5626,
      "人物": 5627,
      "▁national": 5628,
      "姐姐": 5629,
      "背景": 5630,
      "▁zhun": 5631,
      "▁correct": 5632,
      "不久": 5633,
      "角色": 5634,
      "cies": 5635,
      "威胁": 5636,
      "▁Sat": 5637,
      "▁Which": 5638,
      "го": 5639,
      "我去": 5640,
      "他还": 5641,
      "望着": 5642,
      "不停": 5643,
      "公主": 5644,
      "必然": 5645,
      "▁Chi": 5646,
      "▁areas": 5647,
      "▁separ": 5648,
      "系列": 5649,
      "连忙": 5650,
      "▁aus": 5651,
      "里面的": 5652,
      "头的": 5653,
      "跟大家": 5654,
      "aur": 5655,
      "我们再": 5656,
      "▁bon": 5657,
      "▁sie": 5658,
      "bei": 5659,
      "▁lɪtəl": 5660,
      "意外": 5661,
      "▁allowed": 5662,
      "眼中": 5663,
      "太多": 5664,
      "aughter": 5665,
      "▁smart": 5666,
      "了这个": 5667,
      "ɪts": 5668,
      "犹豫": 5669,
      "▁East": 5670,
      "▁worse": 5671,
      "▁hearing": 5672,
      "ación": 5673,
      "▁heav": 5674,
      "将来": 5675,
      "文字": 5676,
      "正确的": 5677,
      "所以他": 5678,
      "ли": 5679,
      "▁led": 5680,
      "▁beyond": 5681,
      "▁wonderful": 5682,
      "lement": 5683,
      "办公室": 5684,
      "lock": 5685,
      "渐渐": 5686,
      "▁nin": 5687,
      "▁Mark": 5688,
      "port": 5689,
      "自信": 5690,
      "特征": 5691,
      "之力": 5692,
      "始终": 5693,
      "▁repl": 5694,
      "▁becomes": 5695,
      "方面的": 5696,
      "▁Christian": 5697,
      "岁的": 5698,
      "然后再": 5699,
      "你还": 5700,
      "▁Alex": 5701,
      "▁mach": 5702,
      "dom": 5703,
      "5.": 5704,
      "how": 5705,
      "▁cross": 5706,
      "ɝd": 5707,
      "ɔri": 5708,
      "问题的": 5709,
      "整体": 5710,
      "▁quality": 5711,
      "▁older": 5712,
      "▁sig": 5713,
      "在一个": 5714,
      "无奈": 5715,
      "ederal": 5716,
      "▁ikke": 5717,
      "▁upon": 5718,
      "老人": 5719,
      "jo": 5720,
      "nde": 5721,
      "▁Cr": 5722,
      "▁nong": 5723,
      "直播": 5724,
      "cia": 5725,
      "一名": 5726,
      "bién": 5727,
      "▁anti": 5728,
      "▁choice": 5729,
      "重大": 5730,
      "tt": 5731,
      "传来": 5732,
      "▁Rob": 5733,
      "▁apply": 5734,
      "前的": 5735,
      "给它": 5736,
      "▁hay": 5737,
      "▁scen": 5738,
      "那么多": 5739,
      "你能": 5740,
      "就已经": 5741,
      "明白了": 5742,
      "▁opinion": 5743,
      "不需要": 5744,
      "实践": 5745,
      "一人": 5746,
      "▁connect": 5747,
      "信任": 5748,
      "眉头": 5749,
      "所在": 5750,
      "▁skin": 5751,
      "五百": 5752,
      "▁challenge": 5753,
      "▁arri": 5754,
      "uit": 5755,
      "一场": 5756,
      "▁consum": 5757,
      "▁zhuo": 5758,
      "定了": 5759,
      "一股": 5760,
      "我都": 5761,
      "aɪv": 5762,
      "▁Fe": 5763,
      "▁Jan": 5764,
      "在那里": 5765,
      "▁podcasts": 5766,
      "灵魂": 5767,
      "即便": 5768,
      "▁introdu": 5769,
      "金融": 5770,
      "主任": 5771,
      "emp": 5772,
      "shou": 5773,
      "三人": 5774,
      "resh": 5775,
      "key": 5776,
      "理想": 5777,
      "▁Ed": 5778,
      "状况": 5779,
      "▁luck": 5780,
      "▁visit": 5781,
      "等着": 5782,
      "minist": 5783,
      "tr": 5784,
      "说我": 5785,
      "▁Mor": 5786,
      "▁nobody": 5787,
      "联合": 5788,
      "舒服": 5789,
      "辈子": 5790,
      "他人": 5791,
      "▁bank": 5792,
      "认真": 5793,
      "▁на": 5794,
      "的情况下": 5795,
      "▁truly": 5796,
      "的身": 5797,
      "iced": 5798,
      "▁calling": 5799,
      "小孩": 5800,
      "实在是": 5801,
      "▁lʌv": 5802,
      "▁τ": 5803,
      "▁easier": 5804,
      "▁response": 5805,
      "ov": 5806,
      "▁forg": 5807,
      "的这": 5808,
      "ays": 5809,
      "▁Gen": 5810,
      "好多": 5811,
      "▁11": 5812,
      "而不": 5813,
      "▁faith": 5814,
      "▁audience": 5815,
      "某种": 5816,
      "我们这个": 5817,
      "一定的": 5818,
      "补充": 5819,
      "为什么要": 5820,
      "▁husband": 5821,
      "lus": 5822,
      "照顾": 5823,
      "进一步": 5824,
      "兴奋": 5825,
      "呵呵": 5826,
      "方便": 5827,
      "年轻人": 5828,
      "ishing": 5829,
      "▁squ": 5830,
      "你有": 5831,
      "▁nai": 5832,
      "▁goals": 5833,
      "美元": 5834,
      "只好": 5835,
      "没事": 5836,
      "什么呀": 5837,
      "▁rout": 5838,
      "我们现在": 5839,
      "▁results": 5840,
      "40": 5841,
      "我知道": 5842,
      "▁sil": 5843,
      "▁ave": 5844,
      "▁Sy": 5845,
      "▁store": 5846,
      "增长": 5847,
      "心情": 5848,
      "▁Mond": 5849,
      "▁property": 5850,
      "cul": 5851,
      "▁jæ": 5852,
      "ɔt": 5853,
      "▁Ham": 5854,
      "ato": 5855,
      "一张": 5856,
      "▁sad": 5857,
      "淡淡": 5858,
      "lev": 5859,
      "说过": 5860,
      "就是他": 5861,
      "的机会": 5862,
      "▁knowing": 5863,
      "▁ruo": 5864,
      "aining": 5865,
      "▁realized": 5866,
      "提前": 5867,
      "毕业": 5868,
      "lled": 5869,
      "▁reach": 5870,
      "▁Ab": 5871,
      "冲突": 5872,
      "▁Og": 5873,
      "▁multiple": 5874,
      "lao": 5875,
      "60": 5876,
      "太子": 5877,
      "▁performance": 5878,
      "婚姻": 5879,
      "▁engine": 5880,
      "iar": 5881,
      "情形": 5882,
      "连续": 5883,
      "yong": 5884,
      "▁helped": 5885,
      "▁average": 5886,
      "▁students": 5887,
      "▁moments": 5888,
      "▁encour": 5889,
      "▁scient": 5890,
      "▁specifically": 5891,
      "▁After": 5892,
      "▁eating": 5893,
      "▁teacher": 5894,
      "loʊ": 5895,
      "▁hair": 5896,
      "▁German": 5897,
      "▁material": 5898,
      "大师": 5899,
      "▁private": 5900,
      "到时候": 5901,
      "▁gro": 5902,
      "笑容": 5903,
      "修为": 5904,
      "▁här": 5905,
      "▁gotten": 5906,
      "题目": 5907,
      "▁hasn": 5908,
      "▁global": 5909,
      "▁loc": 5910,
      "等待": 5911,
      "全身": 5912,
      "wise": 5913,
      "处的": 5914,
      "神经": 5915,
      "一路": 5916,
      "keting": 5917,
      "▁cause": 5918,
      "成绩": 5919,
      "我这": 5920,
      "照片": 5921,
      "%,": 5922,
      "来看一下": 5923,
      "随即": 5924,
      "ibly": 5925,
      "▁ک": 5926,
      "显示": 5927,
      "是你": 5928,
      "也不能": 5929,
      "gong": 5930,
      "清晰": 5931,
      "挑战": 5932,
      "cai": 5933,
      "您的": 5934,
      "itted": 5935,
      "llig": 5936,
      "▁decisions": 5937,
      "▁achie": 5938,
      "▁б": 5939,
      "▁compl": 5940,
      "zt": 5941,
      "他自己": 5942,
      "umber": 5943,
      "在这儿": 5944,
      "区域": 5945,
      "规律": 5946,
      "愤怒": 5947,
      "▁fascin": 5948,
      "▁exe": 5949,
      "部的": 5950,
      "▁disapp": 5951,
      "▁honestly": 5952,
      "▁awesome": 5953,
      "头上": 5954,
      "发现了": 5955,
      "▁vote": 5956,
      "alt": 5957,
      "▁hɛz": 5958,
      "▁dɪfɝ": 5959,
      "▁capital": 5960,
      "urance": 5961,
      "请求": 5962,
      "顾客": 5963,
      "ship": 5964,
      "期待": 5965,
      "是指": 5966,
      "▁cos": 5967,
      "▁Uni": 5968,
      "▁publ": 5969,
      "▁UK": 5970,
      "aches": 5971,
      "新闻": 5972,
      "ет": 5973,
      "吸收": 5974,
      "▁ч": 5975,
      "工资": 5976,
      "▁rou": 5977,
      "▁fle": 5978,
      "统治": 5979,
      "就行了": 5980,
      "给自己": 5981,
      "▁thanks": 5982,
      "学家": 5983,
      "法国": 5984,
      "▁Med": 5985,
      "另外一个": 5986,
      "▁tomorrow": 5987,
      "▁Tal": 5988,
      "nəs": 5989,
      "▁events": 5990,
      "公元": 5991,
      "再加上": 5992,
      "的呢": 5993,
      "▁alg": 5994,
      "▁knowledge": 5995,
      "现金": 5996,
      "高手": 5997,
      "▁het": 5998,
      "破坏": 5999,
      "描述": 6000,
      "▁search": 6001,
      "▁zan": 6002,
      "设置": 6003,
      "让自己": 6004,
      "生物": 6005,
      "order": 6006,
      "▁walking": 6007,
      "这些东西": 6008,
      "▁sales": 6009,
      "▁star": 6010,
      "固定": 6011,
      "轻松": 6012,
      "▁relig": 6013,
      "▁depe": 6014,
      "的那种": 6015,
      "oint": 6016,
      "asing": 6017,
      "想想": 6018,
      "▁gold": 6019,
      "▁traɪ": 6020,
      "ned": 6021,
      "是我们": 6022,
      "还可以": 6023,
      "▁fait": 6024,
      "jiao": 6025,
      "世界上": 6026,
      "▁Russia": 6027,
      "▁Mary": 6028,
      "技能": 6029,
      "一个月": 6030,
      "▁Bo": 6031,
      "xing": 6032,
      "把自己": 6033,
      "不成": 6034,
      "ived": 6035,
      "▁worst": 6036,
      "是最": 6037,
      "刺激": 6038,
      "2?": 6039,
      "▁seg": 6040,
      "▁miao": 6041,
      "诉讼": 6042,
      "▁Red": 6043,
      "体现": 6044,
      "睡觉": 6045,
      "▁这": 6046,
      "配合": 6047,
      "▁tonight": 6048,
      "在于": 6049,
      "▁society": 6050,
      "更好": 6051,
      "▁therap": 6052,
      "命运": 6053,
      "▁force": 6054,
      "▁pued": 6055,
      "▁plays": 6056,
      "guo": 6057,
      "zhen": 6058,
      "通知": 6059,
      "augh": 6060,
      "▁suff": 6061,
      "道的": 6062,
      "▁también": 6063,
      "pa": 6064,
      "▁nut": 6065,
      "keɪ": 6066,
      "大脑": 6067,
      "▁bringing": 6068,
      "▁club": 6069,
      "就没": 6070,
      "▁bull": 6071,
      "享受": 6072,
      "中国的": 6073,
      "▁Jim": 6074,
      "从小": 6075,
      "十六": 6076,
      "▁La": 6077,
      "ée": 6078,
      "当地": 6079,
      "意识到": 6080,
      "的人生": 6081,
      "吃了": 6082,
      "打电话": 6083,
      "▁desp": 6084,
      "▁fat": 6085,
      "ounds": 6086,
      "▁tuan": 6087,
      "ases": 6088,
      "ogle": 6089,
      "▁finding": 6090,
      "动手": 6091,
      "常常": 6092,
      "毫不": 6093,
      "作战": 6094,
      "▁paying": 6095,
      "like": 6096,
      "▁lived": 6097,
      "▁oppos": 6098,
      "另一个": 6099,
      "▁seemed": 6100,
      "▁regard": 6101,
      "抓住": 6102,
      "▁except": 6103,
      "身上的": 6104,
      "▁improve": 6105,
      "shang": 6106,
      "▁However": 6107,
      "▁bill": 6108,
      "连接": 6109,
      "▁North": 6110,
      "十三": 6111,
      "就这么": 6112,
      "在我们": 6113,
      "国民": 6114,
      "əts": 6115,
      "fortun": 6116,
      "来到了": 6117,
      "▁wide": 6118,
      "▁wish": 6119,
      "▁shouldn": 6120,
      "▁todo": 6121,
      "这里面": 6122,
      "▁vous": 6123,
      "多久": 6124,
      "的天": 6125,
      "尝试": 6126,
      "股票": 6127,
      "儿童": 6128,
      "▁streng": 6129,
      "shu": 6130,
      "丰富": 6131,
      "四年": 6132,
      "▁mɛ": 6133,
      "相同": 6134,
      "▁lat": 6135,
      "▁waiting": 6136,
      "▁ɔf": 6137,
      "▁sɔrt": 6138,
      "老婆": 6139,
      "黑暗": 6140,
      "的影响": 6141,
      "▁contract": 6142,
      "之人": 6143,
      "什么叫": 6144,
      "大量的": 6145,
      "▁Dis": 6146,
      "不懂": 6147,
      "nn": 6148,
      "nz": 6149,
      "年纪": 6150,
      "oth": 6151,
      "fɔr": 6152,
      "了很多": 6153,
      "▁thr": 6154,
      "战场": 6155,
      "ee": 6156,
      "他有": 6157,
      "接近": 6158,
      "边的": 6159,
      "是什么呢": 6160,
      "akes": 6161,
      "agn": 6162,
      "▁Sund": 6163,
      "聪明": 6164,
      "▁Act": 6165,
      "商品": 6166,
      "▁fuck": 6167,
      "▁immediately": 6168,
      "充分": 6169,
      "梦想": 6170,
      "对吗": 6171,
      "▁Big": 6172,
      "投入": 6173,
      "▁died": 6174,
      "▁hopefully": 6175,
      "OK": 6176,
      "▁rev": 6177,
      "▁topic": 6178,
      "专家": 6179,
      "oking": 6180,
      "ored": 6181,
      "▁ɛvɝ": 6182,
      "意志": 6183,
      "cket": 6184,
      "▁page": 6185,
      "▁states": 6186,
      "aling": 6187,
      "▁tun": 6188,
      "▁potentially": 6189,
      "财富": 6190,
      "▁context": 6191,
      "▁bɑ": 6192,
      "itor": 6193,
      "asy": 6194,
      "疯狂": 6195,
      "狠狠": 6196,
      "功夫": 6197,
      "▁ultimately": 6198,
      "弟弟": 6199,
      "不去": 6200,
      "▁aspect": 6201,
      "▁cash": 6202,
      "raft": 6203,
      "用来": 6204,
      "是对": 6205,
      "▁recent": 6206,
      "并非": 6207,
      "在他的": 6208,
      "▁auf": 6209,
      "▁development": 6210,
      "互相": 6211,
      "▁popular": 6212,
      "iny": 6213,
      "的状态": 6214,
      "体内": 6215,
      "▁Black": 6216,
      "告诉我": 6217,
      "▁spending": 6218,
      "的结果": 6219,
      "▁contr": 6220,
      "早上": 6221,
      "▁jɪr": 6222,
      "▁hæp": 6223,
      "cheng": 6224,
      "以下": 6225,
      "ɛns": 6226,
      "▁creating": 6227,
      "合适": 6228,
      "▁een": 6229,
      "营销": 6230,
      "▁center": 6231,
      "夫妻": 6232,
      "媒体": 6233,
      "暂时": 6234,
      "天天": 6235,
      "一时": 6236,
      "▁legal": 6237,
      "是没有": 6238,
      "约定": 6239,
      "▁sam": 6240,
      "平静": 6241,
      "老头": 6242,
      "上下": 6243,
      "▁began": 6244,
      "见的": 6245,
      "▁hosp": 6246,
      "▁Mus": 6247,
      "一句话": 6248,
      "因为我们": 6249,
      "▁ill": 6250,
      "▁Those": 6251,
      "ilities": 6252,
      "尊重": 6253,
      "▁pet": 6254,
      "露出": 6255,
      "san": 6256,
      "ores": 6257,
      "▁mic": 6258,
      "ises": 6259,
      "第五": 6260,
      "▁negative": 6261,
      "使得": 6262,
      "惊讶": 6263,
      "是从": 6264,
      "umb": 6265,
      "▁sche": 6266,
      "到这个": 6267,
      "▁princi": 6268,
      "ault": 6269,
      "科技": 6270,
      "▁Today": 6271,
      "▁object": 6272,
      "æs": 6273,
      "▁demand": 6274,
      "aks": 6275,
      "▁Sw": 6276,
      "罗马": 6277,
      "▁Och": 6278,
      "▁bought": 6279,
      "ес": 6280,
      "权的": 6281,
      "▁teng": 6282,
      "▁danger": 6283,
      "▁terrible": 6284,
      "那天": 6285,
      "▁organization": 6286,
      "是可以": 6287,
      "月份": 6288,
      "ivil": 6289,
      "沉默": 6290,
      "工业": 6291,
      "əlz": 6292,
      "▁Bill": 6293,
      "hm": 6294,
      "把我": 6295,
      "症状": 6296,
      "▁Ent": 6297,
      "所以这个": 6298,
      "▁Monday": 6299,
      "会不会": 6300,
      "▁14": 6301,
      "▁Che": 6302,
      "主人": 6303,
      "作业": 6304,
      "▁provide": 6305,
      "两年": 6306,
      "▁dise": 6307,
      "▁consist": 6308,
      "其他人": 6309,
      "▁note": 6310,
      "平衡": 6311,
      "要去": 6312,
      "▁emer": 6313,
      "忘了": 6314,
      "模样": 6315,
      "▁bat": 6316,
      "四周": 6317,
      "▁administ": 6318,
      "司马": 6319,
      "▁Em": 6320,
      "石头": 6321,
      "协议": 6322,
      "今日": 6323,
      "我可以": 6324,
      "一句": 6325,
      "登记": 6326,
      "是很": 6327,
      "好奇": 6328,
      "有一天": 6329,
      "▁direction": 6330,
      "得到了": 6331,
      "自动": 6332,
      "▁exciting": 6333,
      "▁watched": 6334,
      "wən": 6335,
      "重视": 6336,
      "了过来": 6337,
      "就连": 6338,
      "皮肤": 6339,
      "▁comput": 6340,
      "und": 6341,
      "发的": 6342,
      "▁internet": 6343,
      "全都": 6344,
      "培训": 6345,
      "苏联": 6346,
      "▁medic": 6347,
      "长时间": 6348,
      "▁Does": 6349,
      "▁gɪv": 6350,
      "十几": 6351,
      "及时": 6352,
      "▁agre": 6353,
      "3、": 6354,
      "有的人": 6355,
      "着的": 6356,
      "他就是": 6357,
      "▁əgɛn": 6358,
      "apt": 6359,
      "一般的": 6360,
      "ona": 6361,
      "▁showing": 6362,
      "▁official": 6363,
      "hington": 6364,
      "▁mine": 6365,
      "ological": 6366,
      "▁Show": 6367,
      "▁conversations": 6368,
      "▁talent": 6369,
      "特别是": 6370,
      "nia": 6371,
      "▁Tex": 6372,
      "▁buying": 6373,
      "有限": 6374,
      "高级": 6375,
      "的能力": 6376,
      "utions": 6377,
      "剩下": 6378,
      "同事": 6379,
      "ер": 6380,
      "▁calls": 6381,
      "7,": 6382,
      "▁fully": 6383,
      "继承": 6384,
      "他没有": 6385,
      "▁dass": 6386,
      "在地上": 6387,
      "国王": 6388,
      "▁above": 6389,
      "▁rules": 6390,
      "床上": 6391,
      "ror": 6392,
      "这不是": 6393,
      "mpions": 6394,
      "给我们": 6395,
      "▁capt": 6396,
      "▁在": 6397,
      "▁ble": 6398,
      "相比": 6399,
      "▁Sen": 6400,
      "俄罗斯": 6401,
      "▁hurt": 6402,
      "▁address": 6403,
      "儿的": 6404,
      "各自": 6405,
      "▁stick": 6406,
      "▁luan": 6407,
      "inary": 6408,
      "6,": 6409,
      "arently": 6410,
      "▁feet": 6411,
      "rer": 6412,
      "▁journal": 6413,
      "▁League": 6414,
      "焦虑": 6415,
      "彼此": 6416,
      "nan": 6417,
      "失去": 6418,
      "?!": 6419,
      "下午": 6420,
      "isten": 6421,
      "英雄": 6422,
      "▁rates": 6423,
      "▁overall": 6424,
      "▁businesses": 6425,
      "▁drop": 6426,
      "▁flow": 6427,
      "中医": 6428,
      "▁activ": 6429,
      "利亚": 6430,
      "▁kick": 6431,
      "▁campaign": 6432,
      "离开了": 6433,
      "这条": 6434,
      "ʃənz": 6435,
      "一致": 6436,
      "完整": 6437,
      "▁Have": 6438,
      "学院": 6439,
      "起来了": 6440,
      "好几": 6441,
      "▁Washington": 6442,
      "bʌt": 6443,
      "iendo": 6444,
      "▁stock": 6445,
      "客观": 6446,
      "▁relationships": 6447,
      "▁fɑ": 6448,
      "找到了": 6449,
      "大量": 6450,
      "一遍": 6451,
      "古代": 6452,
      "股东": 6453,
      "相关的": 6454,
      "▁tro": 6455,
      "▁aɪv": 6456,
      "▁NFL": 6457,
      "▁slight": 6458,
      "▁leader": 6459,
      "▁Christmas": 6460,
      "▁Ukraine": 6461,
      "omen": 6462,
      "▁purpose": 6463,
      "见了": 6464,
      "▁daily": 6465,
      "七八": 6466,
      "▁politics": 6467,
      "ja": 6468,
      "▁ki": 6469,
      "▁jobs": 6470,
      "改革": 6471,
      "▁poor": 6472,
      "练习": 6473,
      "道路": 6474,
      "▁Ah": 6475,
      "▁named": 6476,
      "对这个": 6477,
      "事实上": 6478,
      "▁date": 6479,
      "▁king": 6480,
      "80": 6481,
      "▁Google": 6482,
      "着急": 6483,
      "▁represent": 6484,
      "把握": 6485,
      "文明": 6486,
      "▁psych": 6487,
      "对付": 6488,
      "uel": 6489,
      "关心": 6490,
      "的一切": 6491,
      "▁bottom": 6492,
      "年代": 6493,
      "妹妹": 6494,
      "人和": 6495,
      "美的": 6496,
      "▁holiday": 6497,
      "▁background": 6498,
      "ara": 6499,
      "西方": 6500,
      "你觉得": 6501,
      "8,": 6502,
      "的位置": 6503,
      "你现在": 6504,
      "▁就": 6505,
      "比方": 6506,
      "▁gift": 6507,
      "全球": 6508,
      "满意": 6509,
      "随时": 6510,
      "▁π": 6511,
      "▁د": 6512,
      "▁ه": 6513,
      "▁sym": 6514,
      "资格": 6515,
      "ech": 6516,
      "▁ka": 6517,
      "▁twe": 6518,
      "▁killed": 6519,
      "▁adm": 6520,
      "讲了": 6521,
      "上班": 6522,
      "ère": 6523,
      "▁shun": 6524,
      "field": 6525,
      "▁quarterback": 6526,
      "朝廷": 6527,
      "▁exerc": 6528,
      "!?": 6529,
      "是为了": 6530,
      "生活中": 6531,
      "▁significant": 6532,
      "▁hɛ": 6533,
      "▁Cor": 6534,
      "iding": 6535,
      "▁incredibly": 6536,
      "ffee": 6537,
      "的发展": 6538,
      "▁hell": 6539,
      "▁ken": 6540,
      "奶奶": 6541,
      "在大": 6542,
      "感受到": 6543,
      "▁gas": 6544,
      "▁Super": 6545,
      "NA": 6546,
      "那时候": 6547,
      "▁Sunday": 6548,
      "▁draft": 6549,
      "十九": 6550,
      "缺乏": 6551,
      "效率": 6552,
      "æd": 6553,
      "▁oil": 6554,
      "EO": 6555,
      "▁peace": 6556,
      "▁subject": 6557,
      "▁cand": 6558,
      "浑身": 6559,
      "大声": 6560,
      "上前": 6561,
      "▁ant": 6562,
      "▁investment": 6563,
      "一个小": 6564,
      "▁ت": 6565,
      "进步": 6566,
      "▁Pal": 6567,
      "降低": 6568,
      "▁White": 6569,
      "的前": 6570,
      "异常": 6571,
      "黄金": 6572,
      "▁daughter": 6573,
      "乘以": 6574,
      "▁wherever": 6575,
      "两千": 6576,
      "看了看": 6577,
      "▁Jap": 6578,
      "▁tools": 6579,
      "▁Sim": 6580,
      "▁From": 6581,
      "▁connection": 6582,
      "手指": 6583,
      "说呢": 6584,
      "某些": 6585,
      "▁dude": 6586,
      "▁shift": 6587,
      "▁thousands": 6588,
      "▁due": 6589,
      "▁第": 6590,
      "指导": 6591,
      "药物": 6592,
      "▁driving": 6593,
      "转移": 6594,
      "▁cold": 6595,
      "▁Ma": 6596,
      "sheng": 6597,
      "▁må": 6598,
      "▁regular": 6599,
      "然后我": 6600,
      "会的": 6601,
      "观念": 6602,
      "▁spread": 6603,
      "xia": 6604,
      "干什么": 6605,
      "fang": 6606,
      "▁lack": 6607,
      "▁jet": 6608,
      "▁British": 6609,
      "ɔrd": 6610,
      "地下": 6611,
      "ension": 6612,
      "就跟": 6613,
      "为何": 6614,
      "zan": 6615,
      "想起": 6616,
      "教学": 6617,
      "点儿": 6618,
      "▁ot": 6619,
      "而来": 6620,
      "有一种": 6621,
      "uary": 6622,
      "▁scene": 6623,
      "▁contact": 6624,
      "没错": 6625,
      "ɝi": 6626,
      "干净": 6627,
      "释放": 6628,
      "▁Mart": 6629,
      "▁unique": 6630,
      "used": 6631,
      "▁carry": 6632,
      "▁za": 6633,
      "当事": 6634,
      "ɔɪnt": 6635,
      "▁marketing": 6636,
      "▁shut": 6637,
      "是这样": 6638,
      "▁movement": 6639,
      "▁color": 6640,
      "便宜": 6641,
      "ku": 6642,
      "▁greɪt": 6643,
      "▁behavior": 6644,
      "500": 6645,
      "▁Ang": 6646,
      "▁comfortable": 6647,
      "都知道": 6648,
      "收拾": 6649,
      "▁economic": 6650,
      "每一": 6651,
      "aker": 6652,
      "分配": 6653,
      "pan": 6654,
      "广告": 6655,
      "胜利": 6656,
      "▁sí": 6657,
      "不但": 6658,
      "写的": 6659,
      "出生": 6660,
      "胖子": 6661,
      "▁conse": 6662,
      "听众": 6663,
      "ʌðɝ": 6664,
      "gers": 6665,
      "ray": 6666,
      "▁See": 6667,
      "antage": 6668,
      "规划": 6669,
      "▁medical": 6670,
      "▁sn": 6671,
      "大于": 6672,
      "到达": 6673,
      "▁education": 6674,
      "▁prem": 6675,
      "混凝": 6676,
      "▁Day": 6677,
      "的行为": 6678,
      "运用": 6679,
      "细节": 6680,
      "具备": 6681,
      "病人": 6682,
      "▁customers": 6683,
      "再见": 6684,
      "aʊnd": 6685,
      "▁pand": 6686,
      "着他": 6687,
      "▁24": 6688,
      "所说的": 6689,
      "▁Så": 6690,
      "▁Great": 6691,
      "▁Que": 6692,
      "▁increase": 6693,
      "就很": 6694,
      "▁decide": 6695,
      "头发": 6696,
      "官员": 6697,
      "▁ré": 6698,
      "ctive": 6699,
      "▁Abs": 6700,
      "混凝土": 6701,
      "rk": 6702,
      "ince": 6703,
      "▁curious": 6704,
      "▁qual": 6705,
      ",[": 6706,
      "▁born": 6707,
      "▁laɪf": 6708,
      "▁fantastic": 6709,
      "azon": 6710,
      "▁strategy": 6711,
      "▁Pol": 6712,
      "pter": 6713,
      "全面": 6714,
      "都很": 6715,
      "我有": 6716,
      "▁Americans": 6717,
      "itution": 6718,
      "远远": 6719,
      "qian": 6720,
      "▁Bro": 6721,
      "▁vari": 6722,
      "▁anywhere": 6723,
      "eper": 6724,
      "▁daʊn": 6725,
      "▁13": 6726,
      "两位": 6727,
      "说你": 6728,
      "都已经": 6729,
      "那么这个": 6730,
      "每年": 6731,
      "▁所以": 6732,
      "▁patients": 6733,
      "▁э": 6734,
      "uf": 6735,
      "完毕": 6736,
      "▁generally": 6737,
      "而去": 6738,
      "▁surv": 6739,
      "▁systems": 6740,
      "点点头": 6741,
      "反复": 6742,
      "做法": 6743,
      "穿着": 6744,
      "▁tim": 6745,
      "▁focused": 6746,
      "▁intellig": 6747,
      "17": 6748,
      "酒店": 6749,
      "ко": 6750,
      "债权": 6751,
      "edom": 6752,
      "身子": 6753,
      "深入": 6754,
      "▁就是": 6755,
      "过去了": 6756,
      "拿到": 6757,
      "鼓励": 6758,
      "维持": 6759,
      "že": 6760,
      "▁60": 6761,
      "▁various": 6762,
      "▁voc": 6763,
      "▁types": 6764,
      "停止": 6765,
      "hold": 6766,
      "▁gut": 6767,
      "cil": 6768,
      "▁function": 6769,
      "▁England": 6770,
      "essed": 6771,
      "▁neigh": 6772,
      "rupt": 6773,
      "ops": 6774,
      "▁unless": 6775,
      "空气": 6776,
      "危机": 6777,
      "adio": 6778,
      "之处": 6779,
      "▁shuang": 6780,
      "▁levels": 6781,
      "更好的": 6782,
      "日常": 6783,
      "到现在": 6784,
      "回来了": 6785,
      "▁motiv": 6786,
      "▁argument": 6787,
      "▁effort": 6788,
      "▁Lu": 6789,
      "▁tɝ": 6790,
      "▁although": 6791,
      "我没有": 6792,
      "▁showed": 6793,
      "的朋友": 6794,
      "嘿嘿": 6795,
      "老子": 6796,
      "不得不": 6797,
      "idad": 6798,
      "帮忙": 6799,
      "▁San": 6800,
      "这样的话": 6801,
      "出发": 6802,
      "▁changing": 6803,
      "ept": 6804,
      "▁Sch": 6805,
      "▁avec": 6806,
      "▁Afric": 6807,
      "▁Cong": 6808,
      "中年": 6809,
      "▁member": 6810,
      "大陆": 6811,
      "打击": 6812,
      "▁size": 6813,
      "了过去": 6814,
      "▁held": 6815,
      "▁article": 6816,
      "教授": 6817,
      "为主": 6818,
      "bel": 6819,
      "他们在": 6820,
      "ession": 6821,
      "▁ing": 6822,
      "▁original": 6823,
      "又有": 6824,
      "▁league": 6825,
      "一个个": 6826,
      "比例": 6827,
      "往前": 6828,
      "了我": 6829,
      "代理": 6830,
      "▁plant": 6831,
      "▁bra": 6832,
      "▁resources": 6833,
      "▁King": 6834,
      "应用": 6835,
      "我们是": 6836,
      "▁dɪfɝənt": 6837,
      "▁spoke": 6838,
      "5%": 6839,
      "zz": 6840,
      "阴阳": 6841,
      "itation": 6842,
      "▁mix": 6843,
      "可以说": 6844,
      "而出": 6845,
      "▁ðæn": 6846,
      "▁qun": 6847,
      "例如": 6848,
      "我不知道": 6849,
      "▁Japan": 6850,
      "就是要": 6851,
      "▁green": 6852,
      "▁William": 6853,
      "chan": 6854,
      "over": 6855,
      "▁concept": 6856,
      "电脑": 6857,
      "▁becoming": 6858,
      "我们会": 6859,
      "▁dos": 6860,
      "▁famous": 6861,
      "当下": 6862,
      "▁100%": 6863,
      "▁leading": 6864,
      "他这个": 6865,
      "这场": 6866,
      "ening": 6867,
      "付出": 6868,
      "ota": 6869,
      "▁ɪksp": 6870,
      "好处": 6871,
      "爆炸": 6872,
      "当时的": 6873,
      "▁according": 6874,
      "神秘": 6875,
      "▁contrib": 6876,
      "lar": 6877,
      "▁nation": 6878,
      "care": 6879,
      "她们": 6880,
      "▁Alright": 6881,
      "lip": 6882,
      "bɑ": 6883,
      "他妈": 6884,
      "▁caught": 6885,
      "▁document": 6886,
      "▁passed": 6887,
      "▁fighting": 6888,
      "▁groups": 6889,
      "手中的": 6890,
      "aven": 6891,
      "公开": 6892,
      "bility": 6893,
      "▁doctor": 6894,
      "▁possibly": 6895,
      "▁呃": 6896,
      "oud": 6897,
      "话题": 6898,
      "wen": 6899,
      "地球": 6900,
      "极为": 6901,
      "ateg": 6902,
      "▁range": 6903,
      "▁bag": 6904,
      "▁не": 6905,
      "▁saf": 6906,
      "▁Spe": 6907,
      "inese": 6908,
      "▁bud": 6909,
      "▁missing": 6910,
      "▁clients": 6911,
      "机器": 6912,
      "组成": 6913,
      "▁cris": 6914,
      "itude": 6915,
      "mente": 6916,
      "对了": 6917,
      "产业": 6918,
      "总统": 6919,
      "▁grew": 6920,
      "▁speed": 6921,
      "▁Mon": 6922,
      "这三": 6923,
      "▁notice": 6924,
      "评论": 6925,
      "▁modern": 6926,
      "做得": 6927,
      "这事": 6928,
      "疑惑": 6929,
      "对自己": 6930,
      "▁这个": 6931,
      "ex": 6932,
      "▁Anyway": 6933,
      "七年": 6934,
      "定义": 6935,
      "同样的": 6936,
      "▁options": 6937,
      "眼里": 6938,
      "▁apart": 6939,
      "▁staff": 6940,
      "鬼子": 6941,
      "▁bueno": 6942,
      "▁charge": 6943,
      "十四": 6944,
      "▁double": 6945,
      "▁eso": 6946,
      "aries": 6947,
      "het": 6948,
      "特别的": 6949,
      "▁ao": 6950,
      "▁zhui": 6951,
      "回忆": 6952,
      "没办法": 6953,
      "ences": 6954,
      "才能够": 6955,
      "aced": 6956,
      "出口": 6957,
      "把你": 6958,
      "▁directly": 6959,
      "震惊": 6960,
      "▁floor": 6961,
      "▁tak": 6962,
      "准确": 6963,
      "动力": 6964,
      "委员": 6965,
      "ted": 6966,
      "激动": 6967,
      "▁federal": 6968,
      "一点点": 6969,
      "生存": 6970,
      "cis": 6971,
      "ва": 6972,
      "guan": 6973,
      "▁hab": 6974,
      "阅读": 6975,
      "爱情": 6976,
      "▁Number": 6977,
      "▁personally": 6978,
      "考点": 6979,
      "bie": 6980,
      "教师": 6981,
      "给予": 6982,
      "的故事": 6983,
      "▁band": 6984,
      "▁heng": 6985,
      "两天": 6986,
      "▁ning": 6987,
      "▁names": 6988,
      "▁talks": 6989,
      "▁balance": 6990,
      "其实就是": 6991,
      "他想": 6992,
      "深刻": 6993,
      "几个人": 6994,
      "▁details": 6995,
      "了一句": 6996,
      "▁title": 6997,
      "ocked": 6998,
      "有钱": 6999,
      "刘备": 7000,
      "əbli": 7001,
      "▁rent": 7002,
      "聊天": 7003,
      "吃的": 7004,
      "mar": 7005,
      "觉得自己": 7006,
      "▁fal": 7007,
      "▁videos": 7008,
      "▁upd": 7009,
      "门的": 7010,
      "有的时候": 7011,
      "▁teach": 7012,
      "▁emb": 7013,
      "▁zha": 7014,
      "▁complic": 7015,
      "ana": 7016,
      "▁confidence": 7017,
      "pri": 7018,
      "▁University": 7019,
      "▁Chinese": 7020,
      "长得": 7021,
      "The": 7022,
      "▁Plus": 7023,
      "对待": 7024,
      "ita": 7025,
      "▁Hello": 7026,
      "障碍": 7027,
      "▁glad": 7028,
      "face": 7029,
      "▁tells": 7030,
      "▁professional": 7031,
      "▁independ": 7032,
      "黑色": 7033,
      "的过程中": 7034,
      "伸手": 7035,
      "从此": 7036,
      "14": 7037,
      "八年": 7038,
      "aron": 7039,
      "实话": 7040,
      "旅游": 7041,
      "ams": 7042,
      "▁Lond": 7043,
      "▁rob": 7044,
      "▁married": 7045,
      "同志": 7046,
      "保障": 7047,
      "还真": 7048,
      "一万": 7049,
      "不断的": 7050,
      "zhao": 7051,
      "依据": 7052,
      "他已经": 7053,
      "对方的": 7054,
      "chang": 7055,
      "假设": 7056,
      "底下": 7057,
      "队伍": 7058,
      "二百": 7059,
      "weɪz": 7060,
      "ario": 7061,
      "一共": 7062,
      "这一切": 7063,
      "▁Bit": 7064,
      "ان": 7065,
      "roy": 7066,
      "▁grab": 7067,
      "什么意思": 7068,
      "▁lines": 7069,
      "回了": 7070,
      "基金": 7071,
      "▁estab": 7072,
      "▁setting": 7073,
      "在这种": 7074,
      "▁Mad": 7075,
      "fortunately": 7076,
      "不容易": 7077,
      "igen": 7078,
      "atives": 7079,
      "人了": 7080,
      "▁Amazon": 7081,
      "▁associ": 7082,
      "gend": 7083,
      "▁holding": 7084,
      "▁Texas": 7085,
      "▁inflation": 7086,
      "高度": 7087,
      "на": 7088,
      "成熟": 7089,
      "讲到": 7090,
      "▁benefit": 7091,
      "和我": 7092,
      "▁candid": 7093,
      "▁autom": 7094,
      "制作": 7095,
      "成功的": 7096,
      "展开": 7097,
      "▁experiences": 7098,
      "▁winning": 7099,
      "嘴角": 7100,
      "▁Cour": 7101,
      "作为一个": 7102,
      "▁radio": 7103,
      "反映": 7104,
      "对你": 7105,
      "所有人": 7106,
      "层次": 7107,
      "tian": 7108,
      "我跟": 7109,
      "▁tod": 7110,
      "▁grad": 7111,
      "之时": 7112,
      "这本书": 7113,
      "▁tɛl": 7114,
      "带来的": 7115,
      "▁strength": 7116,
      "▁Smith": 7117,
      "lai": 7118,
      "交通": 7119,
      "忘记": 7120,
      "肚子": 7121,
      "▁worried": 7122,
      "在此": 7123,
      "▁prices": 7124,
      "ius": 7125,
      "coin": 7126,
      "ques": 7127,
      "来进行": 7128,
      "详细": 7129,
      "▁purcha": 7130,
      "有些人": 7131,
      "▁cast": 7132,
      "▁turns": 7133,
      "ustr": 7134,
      "▁emotional": 7135,
      "没有办法": 7136,
      "▁secret": 7137,
      "▁teaching": 7138,
      "▁markets": 7139,
      "再去": 7140,
      "mission": 7141,
      "▁sport": 7142,
      "防御": 7143,
      "ни": 7144,
      "▁debt": 7145,
      "▁joining": 7146,
      "▁services": 7147,
      "6.": 7148,
      "可见": 7149,
      "emos": 7150,
      "六年": 7151,
      "▁Rom": 7152,
      "based": 7153,
      "合伙": 7154,
      "▁hous": 7155,
      "半天": 7156,
      "顺利": 7157,
      "▁expected": 7158,
      "▁families": 7159,
      "▁sick": 7160,
      "▁screen": 7161,
      "▁1,": 7162,
      "脚步": 7163,
      "▁bare": 7164,
      "▁selling": 7165,
      "这道": 7166,
      "重复": 7167,
      "▁deɪ": 7168,
      "▁National": 7169,
      "▁stream": 7170,
      "▁January": 7171,
      "老大": 7172,
      "邀请": 7173,
      "empt": 7174,
      "场景": 7175,
      "拿出": 7176,
      "▁conv": 7177,
      "人才": 7178,
      "▁nå": 7179,
      "▁mission": 7180,
      "ann": 7181,
      "多么": 7182,
      "就算是": 7183,
      "▁cars": 7184,
      "说这个": 7185,
      "▁score": 7186,
      "▁relative": 7187,
      "平均": 7188,
      "▁Rem": 7189,
      "▁ɪgz": 7190,
      "也都": 7191,
      "▁keeping": 7192,
      "▁ath": 7193,
      "▁ur": 7194,
      "abor": 7195,
      "▁surprised": 7196,
      "▁Dep": 7197,
      "unk": 7198,
      "中华": 7199,
      "ʃɝ": 7200,
      "农民": 7201,
      "可不": 7202,
      "laugh": 7203,
      "一想": 7204,
      "▁tight": 7205,
      "13": 7206,
      "▁Steve": 7207,
      "▁sett": 7208,
      "lam": 7209,
      "就是因为": 7210,
      "发动": 7211,
      "修士": 7212,
      "抬头": 7213,
      "这不": 7214,
      "▁2020": 7215,
      "一丝": 7216,
      "hol": 7217,
      "oses": 7218,
      "打了": 7219,
      "分子": 7220,
      "的作用": 7221,
      "▁Ser": 7222,
      "询问": 7223,
      "202": 7224,
      "▁pang": 7225,
      "消耗": 7226,
      "响起": 7227,
      "远处": 7228,
      "ри": 7229,
      "▁currently": 7230,
      "什么是": 7231,
      "放下": 7232,
      "的这些": 7233,
      "▁shuai": 7234,
      "hern": 7235,
      "ulous": 7236,
      "▁civil": 7237,
      "假如": 7238,
      "▁extremely": 7239,
      "抱着": 7240,
      "▁Il": 7241,
      "印度": 7242,
      "交给": 7243,
      "青云": 7244,
      "▁pra": 7245,
      "▁forth": 7246,
      "▁George": 7247,
      "▁finish": 7248,
      "走向": 7249,
      "朋友们": 7250,
      "相反": 7251,
      "▁Bet": 7252,
      "▁zero": 7253,
      "sta": 7254,
      "光芒": 7255,
      "▁pieces": 7256,
      "走去": 7257,
      "▁guai": 7258,
      "aster": 7259,
      "▁employe": 7260,
      "yer": 7261,
      "极其": 7262,
      "▁somehow": 7263,
      "cr": 7264,
      "geng": 7265,
      "结论": 7266,
      "▁kui": 7267,
      ".,": 7268,
      "▁Vi": 7269,
      "▁London": 7270,
      "▁helpful": 7271,
      "əg": 7272,
      "然后就": 7273,
      "ɔd": 7274,
      "前往": 7275,
      "国家的": 7276,
      "▁rights": 7277,
      "▁fascinating": 7278,
      "不愿意": 7279,
      "以后呢": 7280,
      "你会发现": 7281,
      "二年": 7282,
      "某个": 7283,
      "▁asse": 7284,
      "▁production": 7285,
      "ya": 7286,
      "▁climate": 7287,
      "▁losing": 7288,
      "不管是": 7289,
      "可能性": 7290,
      "▁Fin": 7291,
      "一方面": 7292,
      "▁style": 7293,
      "般的": 7294,
      "iving": 7295,
      "▁pandemic": 7296,
      "担保": 7297,
      "▁Cent": 7298,
      "ɔrs": 7299,
      "▁complex": 7300,
      "成为了": 7301,
      "lian": 7302,
      "▁ends": 7303,
      "▁log": 7304,
      "巨大": 7305,
      "测试": 7306,
      "策略": 7307,
      "7.": 7308,
      "▁kwɛst": 7309,
      "明明": 7310,
      "▁Peter": 7311,
      "开放": 7312,
      "▁ɝaʊnd": 7313,
      "火焰": 7314,
      "我这个": 7315,
      "▁expert": 7316,
      "pen": 7317,
      "罢了": 7318,
      "差点": 7319,
      "▁Comm": 7320,
      "▁passion": 7321,
      "指标": 7322,
      "▁theory": 7323,
      "hard": 7324,
      "▁Jew": 7325,
      "规范": 7326,
      "进行了": 7327,
      "▁Democrats": 7328,
      "得知": 7329,
      "无人": 7330,
      "▁Absolutely": 7331,
      "发布": 7332,
      "▁uns": 7333,
      "我已经": 7334,
      "和尚": 7335,
      "ɛðɝ": 7336,
      "▁sac": 7337,
      "▁doubt": 7338,
      "之地": 7339,
      "事故": 7340,
      "▁accom": 7341,
      "精力": 7342,
      "发展的": 7343,
      "▁æd": 7344,
      "这么说": 7345,
      "▁ɪnv": 7346,
      "ifying": 7347,
      "▁manager": 7348,
      "▁Satur": 7349,
      "▁crime": 7350,
      "▁blue": 7351,
      "▁trip": 7352,
      "▁opportun": 7353,
      "急忙": 7354,
      "mu": 7355,
      "的后": 7356,
      "ɪfɔr": 7357,
      "▁narr": 7358,
      "▁hospital": 7359,
      "的是什么": 7360,
      "▁management": 7361,
      "式的": 7362,
      "▁stuck": 7363,
      "rict": 7364,
      "▁Saturday": 7365,
      "循环": 7366,
      "▁Calif": 7367,
      "问他": 7368,
      "很简单": 7369,
      "社会主义": 7370,
      "▁skills": 7371,
      "人是": 7372,
      "尽量": 7373,
      "履行": 7374,
      "neng": 7375,
      "留在": 7376,
      "▁ʃoʊ": 7377,
      "无论是": 7378,
      "▁bin": 7379,
      "还得": 7380,
      "女的": 7381,
      "erry": 7382,
      "一大": 7383,
      "到处": 7384,
      "女生": 7385,
      "uments": 7386,
      "bling": 7387,
      "地面": 7388,
      "▁standing": 7389,
      "太过": 7390,
      "bles": 7391,
      "制定": 7392,
      "▁90": 7393,
      "▁avoid": 7394,
      "▁block": 7395,
      "point": 7396,
      "媳妇": 7397,
      "记载": 7398,
      "抵押": 7399,
      "ago": 7400,
      "▁Earth": 7401,
      "▁Jos": 7402,
      "一来": 7403,
      "▁mɛni": 7404,
      "安静": 7405,
      "▁Air": 7406,
      "rench": 7407,
      "▁basis": 7408,
      "很容易": 7409,
      "▁dram": 7410,
      "事的": 7411,
      "xu": 7412,
      "的气": 7413,
      "ura": 7414,
      "出门": 7415,
      "90": 7416,
      "向着": 7417,
      "早已": 7418,
      "没了": 7419,
      "和平": 7420,
      "文学": 7421,
      "单独": 7422,
      "▁Tre": 7423,
      "cu": 7424,
      "它就": 7425,
      "深深": 7426,
      "蛋白": 7427,
      "最多": 7428,
      "▁qué": 7429,
      "颜色": 7430,
      "世界的": 7431,
      "创新": 7432,
      "▁comments": 7433,
      "很好的": 7434,
      "▁earth": 7435,
      "▁runs": 7436,
      "▁wear": 7437,
      "▁advantage": 7438,
      "▁apparently": 7439,
      "断了": 7440,
      "fin": 7441,
      "▁Jeff": 7442,
      "不着": 7443,
      "ander": 7444,
      "itar": 7445,
      "yang": 7446,
      "▁feat": 7447,
      "▁thinks": 7448,
      "不大": 7449,
      "sey": 7450,
      "force": 7451,
      "▁safety": 7452,
      "担任": 7453,
      "ло": 7454,
      "sən": 7455,
      "▁bes": 7456,
      "三天": 7457,
      "没人": 7458,
      "向前": 7459,
      "▁arm": 7460,
      "▁Australian": 7461,
      "▁我们": 7462,
      "ornia": 7463,
      "▁Scott": 7464,
      "▁suddenly": 7465,
      "▁Two": 7466,
      "权力": 7467,
      "关系的": 7468,
      "ка": 7469,
      "差异": 7470,
      "整个人": 7471,
      "acts": 7472,
      "味道": 7473,
      "收获": 7474,
      "有时": 7475,
      "以外": 7476,
      "皇上": 7477,
      "队长": 7478,
      "下降": 7479,
      "▁dɪdnt": 7480,
      "▁dir": 7481,
      "▁Im": 7482,
      "ights": 7483,
      "类型": 7484,
      "lim": 7485,
      "大臣": 7486,
      "适应": 7487,
      "▁playoff": 7488,
      "▁з": 7489,
      "怎么会": 7490,
      "Well": 7491,
      "aren": 7492,
      "▁battle": 7493,
      "玻璃": 7494,
      "▁cetera": 7495,
      "大小": 7496,
      "不是说": 7497,
      "这种情况": 7498,
      "▁mostly": 7499,
      "而后": 7500,
      "去世": 7501,
      "将会": 7502,
      "风格": 7503,
      "oms": 7504,
      "面临": 7505,
      "ival": 7506,
      "70": 7507,
      "大约": 7508,
      "▁News": 7509,
      "▁leaving": 7510,
      "▁insurance": 7511,
      "▁California": 7512,
      "3?": 7513,
      "pid": 7514,
      "▁pɔɪnt": 7515,
      "αι": 7516,
      "片刻": 7517,
      "▁mæn": 7518,
      "▁von": 7519,
      "苏方": 7520,
      "▁prison": 7521,
      "▁girls": 7522,
      "▁leadership": 7523,
      "一番": 7524,
      "weɪ": 7525,
      "▁sharing": 7526,
      "里头": 7527,
      "▁confl": 7528,
      "idge": 7529,
      "律师": 7530,
      "浪费": 7531,
      "▁Eh": 7532,
      "吓得": 7533,
      "fəl": 7534,
      "他和": 7535,
      "安装": 7536,
      "▁maɪt": 7537,
      "ем": 7538,
      "ʃəl": 7539,
      "▁Ric": 7540,
      "这个事情": 7541,
      "严格": 7542,
      "信心": 7543,
      "▁source": 7544,
      "层的": 7545,
      "ula": 7546,
      "所得": 7547,
      "▁income": 7548,
      "ль": 7549,
      "▁strateg": 7550,
      "▁crisis": 7551,
      "再来": 7552,
      "ique": 7553,
      "▁challenges": 7554,
      "猛地": 7555,
      "nces": 7556,
      "丝毫": 7557,
      "▁previous": 7558,
      "▁cang": 7559,
      "▁dies": 7560,
      "▁Tim": 7561,
      "相应的": 7562,
      "mos": 7563,
      "但我": 7564,
      "▁younger": 7565,
      "心脏": 7566,
      "▁valu": 7567,
      "▁ɔlweɪz": 7568,
      "▁network": 7569,
      "▁sab": 7570,
      "eɪndʒ": 7571,
      "失去了": 7572,
      "ador": 7573,
      "▁Obviously": 7574,
      "不开": 7575,
      "▁repe": 7576,
      "ême": 7577,
      "让她": 7578,
      "也被": 7579,
      "▁Mel": 7580,
      "苏南": 7581,
      "jəl": 7582,
      "▁moʊst": 7583,
      "满了": 7584,
      "包含": 7585,
      "▁Bitcoin": 7586,
      "加强": 7587,
      "▁Du": 7588,
      "鲜血": 7589,
      "修行": 7590,
      "手下": 7591,
      "▁tɔk": 7592,
      "▁liked": 7593,
      "嘴里": 7594,
      "东北": 7595,
      "技巧": 7596,
      "ла": 7597,
      "城的": 7598,
      "是由": 7599,
      "成年": 7600,
      "但是你": 7601,
      "这里的": 7602,
      "评估": 7603,
      "ena": 7604,
      "冲击": 7605,
      "笑了笑": 7606,
      "▁effective": 7607,
      "▁Flor": 7608,
      "陷入": 7609,
      "三千": 7610,
      "▁Ju": 7611,
      "性质": 7612,
      "▁onto": 7613,
      "ʌnd": 7614,
      "为人": 7615,
      "是以": 7616,
      "▁gar": 7617,
      "iones": 7618,
      "▁execut": 7619,
      "▁progress": 7620,
      "问你": 7621,
      "轻易": 7622,
      "阶级": 7623,
      "▁load": 7624,
      "tså": 7625,
      "▁century": 7626,
      "已经被": 7627,
      "▁Sometimes": 7628,
      "什么东西": 7629,
      "▁laugh": 7630,
      "▁gente": 7631,
      "▁planet": 7632,
      "社交": 7633,
      "lies": 7634,
      "▁easily": 7635,
      "共产": 7636,
      "招呼": 7637,
      "那位": 7638,
      "fei": 7639,
      "▁administration": 7640,
      "aɪs": 7641,
      "▁degree": 7642,
      "8.": 7643,
      "还是要": 7644,
      "▁weap": 7645,
      "咖啡": 7646,
      "的新": 7647,
      "▁opportunities": 7648,
      "▁eine": 7649,
      "▁ord": 7650,
      "▁thousand": 7651,
      "ndo": 7652,
      "▁Mm": 7653,
      "▁conserv": 7654,
      "ceed": 7655,
      "▁scale": 7656,
      "aly": 7657,
      "oles": 7658,
      "play": 7659,
      "尴尬": 7660,
      "▁bɪfɔr": 7661,
      "▁afr": 7662,
      "去的": 7663,
      "宗教": 7664,
      "▁saving": 7665,
      "ids": 7666,
      "ffic": 7667,
      "民主": 7668,
      "智能": 7669,
      "来源": 7670,
      "▁freedom": 7671,
      "ти": 7672,
      "▁kən": 7673,
      "老公": 7674,
      "lz": 7675,
      "第六": 7676,
      "▁everywhere": 7677,
      "imin": 7678,
      "▁Ver": 7679,
      "但是在": 7680,
      "9.": 7681,
      "离婚": 7682,
      "电子": 7683,
      "atory": 7684,
      "▁partners": 7685,
      "00000000": 7686,
      "▁jak": 7687,
      "ɛkst": 7688,
      "活着": 7689,
      "语气": 7690,
      "eral": 7691,
      "▁não": 7692,
      "金额": 7693,
      "▁mad": 7694,
      "▁coffee": 7695,
      "cient": 7696,
      "的钱": 7697,
      "oti": 7698,
      "▁ʃʊd": 7699,
      "▁Step": 7700,
      "宣传": 7701,
      "▁meɪbi": 7702,
      "▁assum": 7703,
      "ér": 7704,
      "这叫": 7705,
      "的一声": 7706,
      "生活的": 7707,
      "▁wanting": 7708,
      "aint": 7709,
      "基于": 7710,
      "制的": 7711,
      "▁dealing": 7712,
      "热情": 7713,
      "cto": 7714,
      "▁site": 7715,
      "▁deliver": 7716,
      "▁majority": 7717,
      "他把": 7718,
      "▁一": 7719,
      "▁joy": 7720,
      "▁offense": 7721,
      "万一": 7722,
      "支撑": 7723,
      "监督": 7724,
      "▁stɪl": 7725,
      "▁blah": 7726,
      "十七": 7727,
      "将他": 7728,
      "▁afraid": 7729,
      "玩意": 7730,
      "要知道": 7731,
      "▁Bre": 7732,
      "流量": 7733,
      "这也": 7734,
      "hest": 7735,
      "批评": 7736,
      "▁sorts": 7737,
      "ruction": 7738,
      "说他": 7739,
      "▁standard": 7740,
      "决策": 7741,
      "香港": 7742,
      "的水": 7743,
      "▁noch": 7744,
      "▁none": 7745,
      "了他的": 7746,
      "对比": 7747,
      "riage": 7748,
      "原理": 7749,
      "你们的": 7750,
      "▁vision": 7751,
      "▁rule": 7752,
      "▁harder": 7753,
      "iles": 7754,
      "▁mort": 7755,
      "懂得": 7756,
      "▁disease": 7757,
      "▁ɪl": 7758,
      "万元": 7759,
      "半个": 7760,
      "小凡": 7761,
      "摇了": 7762,
      "wɛl": 7763,
      "公众": 7764,
      "耳朵": 7765,
      "▁gua": 7766,
      "▁Ty": 7767,
      "▁Ze": 7768,
      "一口": 7769,
      "是被": 7770,
      "▁closer": 7771,
      "ənts": 7772,
      "▁fort": 7773,
      "马克": 7774,
      "▁constantly": 7775,
      "▁digital": 7776,
      "agon": 7777,
      "看出": 7778,
      "▁diet": 7779,
      "▁sku": 7780,
      "▁limited": 7781,
      "肩膀": 7782,
      "足以": 7783,
      "靠近": 7784,
      "▁Bible": 7785,
      "这样子": 7786,
      "见面": 7787,
      "▁slightly": 7788,
      "业绩": 7789,
      "公共": 7790,
      "血液": 7791,
      "▁attract": 7792,
      "ər": 7793,
      "而在": 7794,
      "▁Pero": 7795,
      "▁eɪ": 7796,
      "积累": 7797,
      "观众": 7798,
      "▁Carol": 7799,
      "去年": 7800,
      "维护": 7801,
      "两次": 7802,
      "不安": 7803,
      "▁released": 7804,
      "正常的": 7805,
      "▁window": 7806,
      "ym": 7807,
      "▁budget": 7808,
      "shui": 7809,
      "群众": 7810,
      "▁patient": 7811,
      "心态": 7812,
      "roud": 7813,
      "下一个": 7814,
      "的重要": 7815,
      "▁Congress": 7816,
      "▁concerned": 7817,
      "▁eller": 7818,
      "▁jetzt": 7819,
      "法则": 7820,
      "了口气": 7821,
      "宣布": 7822,
      "是这个": 7823,
      "▁familiar": 7824,
      "二零一": 7825,
      "▁belief": 7826,
      "▁sna": 7827,
      "的面": 7828,
      "▁cru": 7829,
      "来做": 7830,
      "▁lock": 7831,
      "▁trouble": 7832,
      "▁conditions": 7833,
      "喝酒": 7834,
      "运输": 7835,
      "25": 7836,
      "司机": 7837,
      "▁brings": 7838,
      "▁speech": 7839,
      "感兴趣": 7840,
      "ου": 7841,
      "ctors": 7842,
      "▁option": 7843,
      "内在": 7844,
      "有这个": 7845,
      "▁bom": 7846,
      "▁ign": 7847,
      "▁sister": 7848,
      "▁clar": 7849,
      "。[": 7850,
      "件事": 7851,
      "教练": 7852,
      "交代": 7853,
      "▁particip": 7854,
      "的名": 7855,
      "给他们": 7856,
      "▁Star": 7857,
      "9,": 7858,
      "机械": 7859,
      "▁creo": 7860,
      "▁zang": 7861,
      "一日": 7862,
      "纳税": 7863,
      "是的": 7864,
      "▁nom": 7865,
      "Oh": 7866,
      "▁expensive": 7867,
      "一段": 7868,
      "看上去": 7869,
      "▁announ": 7870,
      "▁weak": 7871,
      "▁wealth": 7872,
      "上次": 7873,
      "▁tic": 7874,
      "əw": 7875,
      "▁pitch": 7876,
      "▁customer": 7877,
      "▁appear": 7878,
      "临时": 7879,
      "星期": 7880,
      "▁categ": 7881,
      "▁heavy": 7882,
      "紧接着": 7883,
      "很是": 7884,
      "▁Republican": 7885,
      "当中的": 7886,
      "心灵": 7887,
      "loy": 7888,
      "毛泽": 7889,
      "▁international": 7890,
      "ʌŋ": 7891,
      "igt": 7892,
      "之类的": 7893,
      "▁wie": 7894,
      "cons": 7895,
      "▁optim": 7896,
      "anta": 7897,
      "zd": 7898,
      "ened": 7899,
      "▁faɪnd": 7900,
      "▁Most": 7901,
      "▁sexual": 7902,
      "▁release": 7903,
      "tai": 7904,
      "▁mie": 7905,
      "əmp": 7906,
      "▁wow": 7907,
      "▁Put": 7908,
      "贡献": 7909,
      "▁plans": 7910,
      "分的": 7911,
      "立马": 7912,
      "▁critical": 7913,
      "▁responsi": 7914,
      "买卖": 7915,
      "商量": 7916,
      "aɪk": 7917,
      "▁forever": 7918,
      "得多": 7919,
      "▁population": 7920,
      "承受": 7921,
      "▁Lou": 7922,
      "inger": 7923,
      "王的": 7924,
      "▁organiz": 7925,
      "ses": 7926,
      "族的": 7927,
      "队的": 7928,
      "▁pit": 7929,
      "一生": 7930,
      "我又": 7931,
      "▁basket": 7932,
      "只会": 7933,
      "▁añ": 7934,
      "▁roll": 7935,
      "__": 7936,
      "ɪtɝ": 7937,
      "▁achieve": 7938,
      "▁finished": 7939,
      "▁generation": 7940,
      "美丽": 7941,
      "放松": 7942,
      "▁fresh": 7943,
      "感染": 7944,
      "▁reve": 7945,
      "听见": 7946,
      "edy": 7947,
      "ɪkəl": 7948,
      "▁steps": 7949,
      "▁manage": 7950,
      "bai": 7951,
      "ordan": 7952,
      "▁covered": 7953,
      "大军": 7954,
      "tait": 7955,
      "▁corpor": 7956,
      "▁rock": 7957,
      "AI": 7958,
      "开车": 7959,
      "大家可以": 7960,
      "一份": 7961,
      "vest": 7962,
      "快的": 7963,
      "ftɝ": 7964,
      "▁disp": 7965,
      "▁strange": 7966,
      "être": 7967,
      "无限": 7968,
      "毛泽东": 7969,
      "err": 7970,
      "在哪里": 7971,
      "辛苦": 7972,
      "▁stopped": 7973,
      "▁planning": 7974,
      "孔子": 7975,
      "多次": 7976,
      "思路": 7977,
      "ford": 7978,
      "工厂": 7979,
      "ager": 7980,
      "脑海": 7981,
      "▁core": 7982,
      "委托": 7983,
      "▁Brown": 7984,
      "she": 7985,
      "企业的": 7986,
      "何况": 7987,
      "工作的": 7988,
      "▁picked": 7989,
      "kn": 7990,
      "传播": 7991,
      "受伤": 7992,
      "说啊": 7993,
      "▁debate": 7994,
      "表明": 7995,
      "▁wearing": 7996,
      "人群": 7997,
      "防止": 7998,
      "指的是": 7999,
      "而且呢": 8000,
      "airs": 8001,
      "▁Court": 8002,
      "▁greatest": 8003,
      "▁statement": 8004,
      "▁cancer": 8005,
      "af": 8006,
      "▁matters": 8007,
      "很久": 8008,
      "▁als": 8009,
      "▁Party": 8010,
      "当事人": 8011,
      "▁discussion": 8012,
      "场的": 8013,
      "▁hɛlp": 8014,
      "化为": 8015,
      "▁burn": 8016,
      "呈现": 8017,
      "▁anxi": 8018,
      "ʊnt": 8019,
      "自从": 8020,
      "free": 8021,
      "工人": 8022,
      "阳光": 8023,
      "▁oʊnli": 8024,
      "▁tiene": 8025,
      "roʊ": 8026,
      "情报": 8027,
      "ston": 8028,
      "。19": 8029,
      "▁Bob": 8030,
      "跑到": 8031,
      "如果我们": 8032,
      "ɪg": 8033,
      "半年": 8034,
      "▁Andrew": 8035,
      "agen": 8036,
      "▁clot": 8037,
      "▁corner": 8038,
      "这个呢": 8039,
      "itness": 8040,
      "隐藏": 8041,
      "想了": 8042,
      "▁connected": 8043,
      "▁Hall": 8044,
      "引导": 8045,
      "▁odd": 8046,
      "▁benefits": 8047,
      "▁Er": 8048,
      "帮你": 8049,
      "emy": 8050,
      "▁ship": 8051,
      "AT": 8052,
      "kæst": 8053,
      "ulate": 8054,
      "从来没有": 8055,
      "干部": 8056,
      "▁noticed": 8057,
      "▁France": 8058,
      "机制": 8059,
      "eline": 8060,
      "▁hadn": 8061,
      "▁suppose": 8062,
      "end": 8063,
      "增值": 8064,
      "审计": 8065,
      "因为这个": 8066,
      "当他": 8067,
      "饮食": 8068,
      "了一会儿": 8069,
      "从事": 8070,
      "ias": 8071,
      "出一个": 8072,
      "的方向": 8073,
      "pper": 8074,
      "AS": 8075,
      "▁afford": 8076,
      "▁obvious": 8077,
      "红色": 8078,
      "ole": 8079,
      "ɪsən": 8080,
      "主张": 8081,
      "一段时间": 8082,
      "两百": 8083,
      "坏了": 8084,
      "▁tas": 8085,
      "▁clin": 8086,
      "一动": 8087,
      "教材": 8088,
      "充满了": 8089,
      "▁Des": 8090,
      "▁Republicans": 8091,
      "car": 8092,
      "怎么做": 8093,
      "▁meth": 8094,
      "▁movies": 8095,
      "▁indic": 8096,
      "▁handle": 8097,
      "▁missed": 8098,
      "▁fourth": 8099,
      "prene": 8100,
      "等级": 8101,
      "紧紧": 8102,
      "▁fell": 8103,
      "▁Minister": 8104,
      "▁judge": 8105,
      "我就是": 8106,
      "▁pregn": 8107,
      "君子": 8108,
      "战士": 8109,
      "我们也": 8110,
      "除非": 8111,
      "bum": 8112,
      "▁latest": 8113,
      "回到了": 8114,
      "ərɛst": 8115,
      "▁offensive": 8116,
      "子弹": 8117,
      "▁opening": 8118,
      "之为": 8119,
      "arante": 8120,
      "xim": 8121,
      "▁walked": 8122,
      "慢慢地": 8123,
      "全力": 8124,
      "▁highly": 8125,
      "为什么呢": 8126,
      "更有": 8127,
      "icing": 8128,
      "肌肉": 8129,
      "▁Love": 8130,
      "▁supply": 8131,
      "点的": 8132,
      "▁əp": 8133,
      "deng": 8134,
      "▁mouth": 8135,
      "脾气": 8136,
      "osop": 8137,
      "▁defensive": 8138,
      "杀死": 8139,
      "▁Cam": 8140,
      "▁crow": 8141,
      "asion": 8142,
      "▁Thom": 8143,
      "一部分": 8144,
      "▁aqu": 8145,
      "fen": 8146,
      "▁peu": 8147,
      "▁enjoyed": 8148,
      "/?": 8149,
      "的最": 8150,
      "很快就": 8151,
      "▁Sar": 8152,
      "听着": 8153,
      "andom": 8154,
      "的时候啊": 8155,
      "间的": 8156,
      "玩笑": 8157,
      "xue": 8158,
      "▁lɔŋ": 8159,
      "▁skill": 8160,
      "具体的": 8161,
      "▁phil": 8162,
      "即将": 8163,
      "流程": 8164,
      "▁assist": 8165,
      "▁traditional": 8166,
      "▁κ": 8167,
      ":00": 8168,
      "手术": 8169,
      "好啊": 8170,
      "▁Green": 8171,
      "大事": 8172,
      "货币": 8173,
      "多少钱": 8174,
      "我来": 8175,
      "有两个": 8176,
      "▁launch": 8177,
      "的第一": 8178,
      "▁cette": 8179,
      "分类": 8180,
      "我们看": 8181,
      "pes": 8182,
      "▁street": 8183,
      "You": 8184,
      "的基础": 8185,
      "ification": 8186,
      "环节": 8187,
      "tən": 8188,
      "剩下的": 8189,
      "▁effic": 8190,
      "▁detail": 8191,
      "温度": 8192,
      "脖子": 8193,
      "月二十": 8194,
      "▁nearly": 8195,
      "▁fundament": 8196,
      "看了一眼": 8197,
      "▁stɔri": 8198,
      "将其": 8199,
      "我们来": 8200,
      "▁cui": 8201,
      "的就": 8202,
      "注册": 8203,
      "太后": 8204,
      "粮食": 8205,
      "▁solid": 8206,
      "▁Another": 8207,
      "kl": 8208,
      "手的": 8209,
      "▁designed": 8210,
      "月的": 8211,
      "▁conscious": 8212,
      "▁recognize": 8213,
      "当我们": 8214,
      "▁donc": 8215,
      "▁owners": 8216,
      "▁pun": 8217,
      "融合": 8218,
      "▁restaur": 8219,
      "看不": 8220,
      "下来的": 8221,
      "▁Florida": 8222,
      "▁CEO": 8223,
      "▁sich": 8224,
      "▁у": 8225,
      "认可": 8226,
      "这一个": 8227,
      "▁letter": 8228,
      "疼痛": 8229,
      "你得": 8230,
      "▁wɔ": 8231,
      "vere": 8232,
      "画面": 8233,
      "just": 8234,
      "▁earn": 8235,
      "传说": 8236,
      "对应": 8237,
      "欲望": 8238,
      "ables": 8239,
      "决心": 8240,
      "▁French": 8241,
      "onces": 8242,
      "▁esta": 8243,
      "念头": 8244,
      "▁tʃeɪndʒ": 8245,
      "dai": 8246,
      "ɪkli": 8247,
      "试图": 8248,
      "表面": 8249,
      "失望": 8250,
      "住在": 8251,
      "精彩": 8252,
      "▁refer": 8253,
      "mes": 8254,
      "台湾": 8255,
      "诸葛": 8256,
      "ədeɪ": 8257,
      "▁switch": 8258,
      "想的": 8259,
      "皇后": 8260,
      "во": 8261,
      "▁anxiety": 8262,
      "检察": 8263,
      "bile": 8264,
      "利息": 8265,
      "▁European": 8266,
      "人口": 8267,
      "cell": 8268,
      "▁что": 8269,
      "▁decades": 8270,
      "té": 8271,
      "ursday": 8272,
      "这个小": 8273,
      "nov": 8274,
      "人之": 8275,
      "ør": 8276,
      "跑了": 8277,
      "hion": 8278,
      "看法": 8279,
      "因为它": 8280,
      "▁Den": 8281,
      "▁applic": 8282,
      "重要的是": 8283,
      "▁costs": 8284,
      "探索": 8285,
      "装备": 8286,
      "vey": 8287,
      "向了": 8288,
      "在你": 8289,
      "怎么办呢": 8290,
      "▁esto": 8291,
      "▁Thursday": 8292,
      "▁busy": 8293,
      "应对": 8294,
      "ctober": 8295,
      "lie": 8296,
      "历史上": 8297,
      "?,": 8298,
      "▁id": 8299,
      "▁creative": 8300,
      "就是一": 8301,
      "我相信": 8302,
      "过来的": 8303,
      "gent": 8304,
      "▁Gold": 8305,
      "在家": 8306,
      "王朝": 8307,
      "▁dɛ": 8308,
      "▁NBA": 8309,
      "怎么可能": 8310,
      "idered": 8311,
      "▁react": 8312,
      "老百姓": 8313,
      "体会": 8314,
      "▁transform": 8315,
      "bon": 8316,
      "▁fju": 8317,
      "ει": 8318,
      "公里": 8319,
      "收到": 8320,
      "手上": 8321,
      "▁sust": 8322,
      "ار": 8323,
      "人啊": 8324,
      "wood": 8325,
      "▁spl": 8326,
      "▁kəmp": 8327,
      "▁pros": 8328,
      "我认为": 8329,
      "▁brief": 8330,
      "说的是": 8331,
      "▁hacer": 8332,
      "和你": 8333,
      "huang": 8334,
      "▁feelings": 8335,
      "不能够": 8336,
      "▁McC": 8337,
      "被他": 8338,
      "▁rap": 8339,
      "arden": 8340,
      "▁enter": 8341,
      "▁murder": 8342,
      "olic": 8343,
      "▁sho": 8344,
      "▁Very": 8345,
      "▁ɪntərɛst": 8346,
      "他们是": 8347,
      "▁victim": 8348,
      "▁commit": 8349,
      "注意力": 8350,
      "太平": 8351,
      "berg": 8352,
      "▁Gl": 8353,
      "▁då": 8354,
      "▁né": 8355,
      "▁agg": 8356,
      "▁hundreds": 8357,
      "不已": 8358,
      "东方": 8359,
      "▁wast": 8360,
      "▁Before": 8361,
      "移动": 8362,
      "▁kænt": 8363,
      "真相": 8364,
      "我对": 8365,
      "sec": 8366,
      "▁October": 8367,
      "what": 8368,
      "ɔdkæst": 8369,
      "斗争": 8370,
      "▁vill": 8371,
      "几十": 8372,
      "嫌疑": 8373,
      "董事": 8374,
      "ancy": 8375,
      "▁include": 8376,
      "带领": 8377,
      "▁studies": 8378,
      "▁kəm": 8379,
      "▁broken": 8380,
      "bur": 8381,
      "男孩": 8382,
      "▁Radio": 8383,
      "了一口气": 8384,
      "一面": 8385,
      "zong": 8386,
      "▁cuando": 8387,
      "▁convin": 8388,
      "却没有": 8389,
      "▁gru": 8390,
      "▁ɛnd": 8391,
      "▁mount": 8392,
      "▁active": 8393,
      "leg": 8394,
      "▁farm": 8395,
      "▁pʊt": 8396,
      "创作": 8397,
      "就不会": 8398,
      "▁niu": 8399,
      "ora": 8400,
      "▁student": 8401,
      "自行": 8402,
      "▁channel": 8403,
      "卫生": 8404,
      "ɪlj": 8405,
      "ounce": 8406,
      "然后他": 8407,
      "▁très": 8408,
      "▁raise": 8409,
      "▁sai": 8410,
      "层面": 8411,
      "派人": 8412,
      "▁koʊ": 8413,
      "那儿": 8414,
      "▁audio": 8415,
      "rig": 8416,
      "▁ко": 8417,
      "▁miles": 8418,
      "än": 8419,
      "你别": 8420,
      "承诺": 8421,
      "cht": 8422,
      "▁cell": 8423,
      "上市": 8424,
      "双眼": 8425,
      "或是": 8426,
      "身影": 8427,
      "▁solution": 8428,
      "走出": 8429,
      "可不是": 8430,
      "组合": 8431,
      "涉及到": 8432,
      "头脑": 8433,
      "本事": 8434,
      "最重要的": 8435,
      "你就会": 8436,
      "▁smaller": 8437,
      "▁ف": 8438,
      "往后": 8439,
      "▁trau": 8440,
      "▁æftɝ": 8441,
      "多个": 8442,
      "▁dʒɑ": 8443,
      "▁exercise": 8444,
      "▁pow": 8445,
      "▁therefore": 8446,
      "▁stupid": 8447,
      "nings": 8448,
      "▁herself": 8449,
      "同一": 8450,
      "我能": 8451,
      "▁Est": 8452,
      "▁maint": 8453,
      "主体": 8454,
      "我一": 8455,
      "ɪʃənz": 8456,
      "▁origin": 8457,
      "如果没有": 8458,
      "board": 8459,
      "适用": 8460,
      "▁related": 8461,
      "▁80": 8462,
      "满脸": 8463,
      "处罚": 8464,
      "摇了摇头": 8465,
      "nɪŋ": 8466,
      "hua": 8467,
      "这三个": 8468,
      "代价": 8469,
      "有一次": 8470,
      "理念": 8471,
      "ɛtɝ": 8472,
      "有多少": 8473,
      "很不": 8474,
      "▁Their": 8475,
      "▁basic": 8476,
      "可怜": 8477,
      "▁shared": 8478,
      "▁spons": 8479,
      "实行": 8480,
      "要想": 8481,
      "can": 8482,
      "venue": 8483,
      "当的": 8484,
      "话说": 8485,
      "▁commer": 8486,
      "客气": 8487,
      "小组": 8488,
      "odies": 8489,
      "丫头": 8490,
      "未来的": 8491,
      "▁Cle": 8492,
      "你不要": 8493,
      "qin": 8494,
      "▁Wed": 8495,
      "▁zun": 8496,
      "人体": 8497,
      "我们先": 8498,
      "▁piao": 8499,
      "讲过": 8500,
      "赔偿": 8501,
      "价值观": 8502,
      "akers": 8503,
      "走进": 8504,
      "钱的": 8505,
      "微笑": 8506,
      "gao": 8507,
      "▁tɑ": 8508,
      "▁dyn": 8509,
      "▁joined": 8510,
      "▁taught": 8511,
      "▁Mid": 8512,
      "▁brill": 8513,
      "经典": 8514,
      "▁même": 8515,
      "▁rare": 8516,
      "▁considered": 8517,
      "斯坦": 8518,
      "普遍": 8519,
      "▁1.": 8520,
      "肯定会": 8521,
      "▁ن": 8522,
      "命的": 8523,
      "总之": 8524,
      "▁ɪnd": 8525,
      "sen": 8526,
      "▁Mac": 8527,
      "▁below": 8528,
      "▁schools": 8529,
      "就想": 8530,
      "▁image": 8531,
      "说不定": 8532,
      "▁haben": 8533,
      "▁Listen": 8534,
      "▁humans": 8535,
      "为止": 8536,
      "燃烧": 8537,
      "由此": 8538,
      "脑子": 8539,
      "season": 8540,
      "▁quiet": 8541,
      "▁guarante": 8542,
      "的身体": 8543,
      "前进": 8544,
      "联盟": 8545,
      "net": 8546,
      "形态": 8547,
      "美女": 8548,
      "各种各": 8549,
      "主意": 8550,
      "▁millions": 8551,
      "的脸": 8552,
      "▁wins": 8553,
      "▁Russian": 8554,
      "▁situations": 8555,
      "owl": 8556,
      "好像是": 8557,
      "ال": 8558,
      "▁turning": 8559,
      "没问题": 8560,
      "诡异": 8561,
      "这人": 8562,
      "▁values": 8563,
      "男性": 8564,
      "▁wood": 8565,
      "▁intelligence": 8566,
      "▁crowd": 8567,
      "主席": 8568,
      "ris": 8569,
      "▁injury": 8570,
      "▁reported": 8571,
      "对此": 8572,
      "usion": 8573,
      "往上": 8574,
      "改善": 8575,
      "宝宝": 8576,
      "我把": 8577,
      "1?": 8578,
      "网上": 8579,
      "acters": 8580,
      "▁require": 8581,
      "促进": 8582,
      "▁dollar": 8583,
      "▁pulled": 8584,
      "▁entreprene": 8585,
      "买了": 8586,
      "悄悄": 8587,
      "▁vacc": 8588,
      "▁dinner": 8589,
      "ras": 8590,
      "他现在": 8591,
      "▁kit": 8592,
      "cape": 8593,
      "▁dar": 8594,
      "发了": 8595,
      "的目光": 8596,
      "▁cook": 8597,
      "发生的": 8598,
      "nded": 8599,
      "整理": 8600,
      "这点": 8601,
      "▁raised": 8602,
      "▁dangerous": 8603,
      "▁intention": 8604,
      "不仅仅": 8605,
      "比方说": 8606,
      "▁sé": 8607,
      "所有人都": 8608,
      "结束了": 8609,
      "ción": 8610,
      "▁click": 8611,
      "▁là": 8612,
      "aled": 8613,
      "▁negoti": 8614,
      "▁liber": 8615,
      "要有": 8616,
      "▁confident": 8617,
      "司法": 8618,
      "是大": 8619,
      "▁Dai": 8620,
      "cember": 8621,
      "▁zeng": 8622,
      "▁baseball": 8623,
      "ht": 8624,
      "▁absolute": 8625,
      "▁characters": 8626,
      "供应": 8627,
      "的三": 8628,
      "met": 8629,
      "从这个": 8630,
      "night": 8631,
      "▁integr": 8632,
      "九年": 8633,
      "rel": 8634,
      "▁Would": 8635,
      "也得": 8636,
      "▁analy": 8637,
      "博士": 8638,
      "居民": 8639,
      "过头": 8640,
      "叫什么": 8641,
      "reet": 8642,
      "与此": 8643,
      "▁mig": 8644,
      "▁marriage": 8645,
      "做事": 8646,
      "报道": 8647,
      "gei": 8648,
      "nda": 8649,
      "超越": 8650,
      "▁欢迎": 8651,
      "▁memory": 8652,
      "普通的": 8653,
      "▁blow": 8654,
      "▁separate": 8655,
      "part": 8656,
      "▁upset": 8657,
      "▁computer": 8658,
      "阻止": 8659,
      "ité": 8660,
      "那么我们": 8661,
      "司令": 8662,
      "▁Nick": 8663,
      "▁electric": 8664,
      "▁whenever": 8665,
      "host": 8666,
      "产生了": 8667,
      "放到": 8668,
      "不像": 8669,
      "他知道": 8670,
      "▁fif": 8671,
      "▁minim": 8672,
      "子曰": 8673,
      "找不到": 8674,
      "的那些": 8675,
      "一半": 8676,
      "dong": 8677,
      "▁March": 8678,
      "▁conference": 8679,
      "达到了": 8680,
      "▁kri": 8681,
      "大会": 8682,
      "天才": 8683,
      "认定": 8684,
      "ari": 8685,
      "▁deter": 8686,
      "水的": 8687,
      "当然了": 8688,
      "完美": 8689,
      "回应": 8690,
      "哲学": 8691,
      "▁seconds": 8692,
      "位的": 8693,
      "做过": 8694,
      "▁surprise": 8695,
      "▁faster": 8696,
      "因为他们": 8697,
      "▁ɛn": 8698,
      "ados": 8699,
      "eds": 8700,
      "它会": 8701,
      "▁mʌ": 8702,
      "农村": 8703,
      "贵的": 8704,
      "▁album": 8705,
      "▁philosop": 8706,
      "▁violence": 8707,
      "▁Fl": 8708,
      "▁Mag": 8709,
      "▁added": 8710,
      "送到": 8711,
      "▁animals": 8712,
      "的孩子": 8713,
      "▁chapter": 8714,
      "的长": 8715,
      "▁vä": 8716,
      "▁Iran": 8717,
      "我再": 8718,
      "▁attempt": 8719,
      "▁mindset": 8720,
      "蒙古": 8721,
      "aps": 8722,
      "强度": 8723,
      "个人的": 8724,
      "uesday": 8725,
      "▁hoping": 8726,
      "不由得": 8727,
      "▁vie": 8728,
      "骑兵": 8729,
      "▁offe": 8730,
      "品质": 8731,
      "▁Lab": 8732,
      "施展": 8733,
      "山的": 8734,
      "这张": 8735,
      "▁experienced": 8736,
      "▁flu": 8737,
      "▁Ryan": 8738,
      "▁keeps": 8739,
      "生死": 8740,
      "▁shape": 8741,
      "公平": 8742,
      "ige": 8743,
      "▁firm": 8744,
      "相处": 8745,
      "quan": 8746,
      "ocks": 8747,
      "▁inn": 8748,
      "▁proud": 8749,
      "记者": 8750,
      "我当时": 8751,
      "ون": 8752,
      "解放": 8753,
      "你了": 8754,
      "anced": 8755,
      "▁Tuesday": 8756,
      "都不是": 8757,
      "▁virt": 8758,
      "ətɪv": 8759,
      "gency": 8760,
      "碰到": 8761,
      "人心": 8762,
      "house": 8763,
      "▁machine": 8764,
      "到底是": 8765,
      "慕容": 8766,
      "这几个": 8767,
      "前来": 8768,
      "不禁": 8769,
      "嘴巴": 8770,
      "▁domin": 8771,
      "之心": 8772,
      "无疑": 8773,
      "clear": 8774,
      "quest": 8775,
      "▁pushing": 8776,
      "苹果": 8777,
      "æŋk": 8778,
      "▁pɔdkæst": 8779,
      "事物": 8780,
      "位于": 8781,
      "身的": 8782,
      "те": 8783,
      "贷款": 8784,
      "抬起": 8785,
      "▁væ": 8786,
      "▁predict": 8787,
      "你再": 8788,
      "大家的": 8789,
      "▁pleɪ": 8790,
      "put": 8791,
      "▁typically": 8792,
      "▁rich": 8793,
      "gal": 8794,
      "▁foreign": 8795,
      "▁coaching": 8796,
      "一群": 8797,
      "元素": 8798,
      "▁sä": 8799,
      "▁ded": 8800,
      "▁critic": 8801,
      "▁gam": 8802,
      "▁impos": 8803,
      "▁interact": 8804,
      "▁tree": 8805,
      "▁December": 8806,
      "的态度": 8807,
      "dule": 8808,
      "▁labor": 8809,
      "检测": 8810,
      "▁struggle": 8811,
      "大地": 8812,
      "贵族": 8813,
      "问我": 8814,
      "▁capac": 8815,
      "▁2,": 8816,
      "驾驶": 8817,
      "▁sweet": 8818,
      "▁instance": 8819,
      "▁structure": 8820,
      "▁spiritual": 8821,
      "▁Prime": 8822,
      "地去": 8823,
      "▁oder": 8824,
      "▁wake": 8825,
      "五千": 8826,
      "还好": 8827,
      "▁transition": 8828,
      "▁nie": 8829,
      "小于": 8830,
      "着一个": 8831,
      "的要求": 8832,
      "▁glass": 8833,
      "的呀": 8834,
      "这段": 8835,
      "完之后": 8836,
      "ugust": 8837,
      "抵抗": 8838,
      "过于": 8839,
      "闻言": 8840,
      "▁Max": 8841,
      "yl": 8842,
      "帮我": 8843,
      "自主": 8844,
      "▁aber": 8845,
      "发表": 8846,
      "看到的": 8847,
      "线索": 8848,
      "在意": 8849,
      "就好": 8850,
      "疑问": 8851,
      "▁cab": 8852,
      "这份": 8853,
      "▁sont": 8854,
      "介石": 8855,
      "▁niang": 8856,
      "一的": 8857,
      "八十": 8858,
      "▁esc": 8859,
      "ining": 8860,
      "干脆": 8861,
      "▁struggling": 8862,
      "确实是": 8863,
      "老太太": 8864,
      "▁Mal": 8865,
      "▁random": 8866,
      "▁Phi": 8867,
      "chers": 8868,
      "▁frame": 8869,
      "▁broke": 8870,
      "医疗": 8871,
      "▁199": 8872,
      "▁exclus": 8873,
      "听得": 8874,
      "无形": 8875,
      "reon": 8876,
      "抱怨": 8877,
      "cos": 8878,
      "▁border": 8879,
      "优先": 8880,
      "了一种": 8881,
      "eld": 8882,
      "▁drug": 8883,
      "▁circum": 8884,
      "巅峰": 8885,
      "白的": 8886,
      "lection": 8887,
      "基因": 8888,
      "个体": 8889,
      "敏感": 8890,
      "▁Bud": 8891,
      "▁mechan": 8892,
      "当天": 8893,
      "▁compared": 8894,
      "不满": 8895,
      "nesday": 8896,
      "▁comme": 8897,
      "▁software": 8898,
      "信念": 8899,
      "之前的": 8900,
      "顺序": 8901,
      "gas": 8902,
      "设立": 8903,
      "▁influence": 8904,
      "垃圾": 8905,
      "cel": 8906,
      "hone": 8907,
      "中国人": 8908,
      "认同": 8909,
      "iers": 8910,
      "▁ens": 8911,
      "▁əndɝ": 8912,
      "外国": 8913,
      "inc": 8914,
      "▁für": 8915,
      "为什么会": 8916,
      "▁bird": 8917,
      "你把": 8918,
      "运营": 8919,
      "▁arrest": 8920,
      "▁Wednesday": 8921,
      "权益": 8922,
      "贸易": 8923,
      "llen": 8924,
      "也是一个": 8925,
      "被告": 8926,
      "我记得": 8927,
      "ortion": 8928,
      "▁rough": 8929,
      "了呢": 8930,
      "▁rise": 8931,
      "你比如说": 8932,
      "信号": 8933,
      "▁master": 8934,
      "▁protest": 8935,
      "就在这": 8936,
      "的同时": 8937,
      "▁Adam": 8938,
      "我很": 8939,
      "默默": 8940,
      "Tok": 8941,
      "▁Park": 8942,
      "天空": 8943,
      "热闹": 8944,
      "▁wed": 8945,
      "来得": 8946,
      "翻译": 8947,
      "心思": 8948,
      "蒋介石": 8949,
      "▁signed": 8950,
      "考察": 8951,
      "jue": 8952,
      "anch": 8953,
      "慢慢的": 8954,
      "的事儿": 8955,
      "▁Jones": 8956,
      "还有一些": 8957,
      "▁unf": 8958,
      "三个人": 8959,
      "▁steɪ": 8960,
      "农业": 8961,
      "依赖": 8962,
      "▁Miss": 8963,
      "▁seɪm": 8964,
      "æns": 8965,
      "▁alt": 8966,
      "rom": 8967,
      "▁shout": 8968,
      "起码": 8969,
      "wor": 8970,
      "▁ett": 8971,
      "▁habl": 8972,
      "▁lean": 8973,
      "大战": 8974,
      "超级": 8975,
      "跟我们": 8976,
      "数学": 8977,
      "▁neighbor": 8978,
      "来自于": 8979,
      "▁unfortunately": 8980,
      "▁trick": 8981,
      "▁August": 8982,
      "有意思": 8983,
      "也不敢": 8984,
      "vember": 8985,
      "▁opposite": 8986,
      "▁evil": 8987,
      "趋势": 8988,
      "▁wondering": 8989,
      "安慰": 8990,
      "的存在": 8991,
      "▁increasing": 8992,
      "胳膊": 8993,
      "软件": 8994,
      "鼻子": 8995,
      "ala": 8996,
      "▁describe": 8997,
      "很重要": 8998,
      "ata": 8999,
      "▁70": 9000,
      "飞行": 9001,
      "▁fairly": 9002,
      "获取": 9003,
      "ikTok": 9004,
      "疫情": 9005,
      "▁nɛvɝ": 9006,
      "共产党": 9007,
      "▁spr": 9008,
      "▁opened": 9009,
      "▁recording": 9010,
      "has": 9011,
      "▁reb": 9012,
      "▁ice": 9013,
      "aud": 9014,
      "在那个": 9015,
      "模型": 9016,
      "▁lve": 9017,
      "▁resist": 9018,
      "就得": 9019,
      "▁chem": 9020,
      "▁identity": 9021,
      "几次": 9022,
      "当即": 9023,
      "▁June": 9024,
      "属性": 9025,
      "▁method": 9026,
      "kɑ": 9027,
      "oper": 9028,
      "hand": 9029,
      "▁ride": 9030,
      "此外": 9031,
      "▁greater": 9032,
      "▁therapy": 9033,
      "▁Vict": 9034,
      "▁bonus": 9035,
      "最早": 9036,
      "后果": 9037,
      "▁Exact": 9038,
      "xie": 9039,
      "ænt": 9040,
      "单纯": 9041,
      "▁destroy": 9042,
      "面子": 9043,
      "▁cards": 9044,
      "▁frustr": 9045,
      "了不少": 9046,
      "▁treatment": 9047,
      "iber": 9048,
      "▁Cap": 9049,
      "▁Other": 9050,
      "血管": 9051,
      "▁hju": 9052,
      "以上的": 9053,
      "这是我们": 9054,
      "▁kənt": 9055,
      "希腊": 9056,
      "▁beg": 9057,
      "主持": 9058,
      "展示": 9059,
      "zu": 9060,
      "▁songs": 9061,
      "▁prevent": 9062,
      "开启": 9063,
      "不下": 9064,
      "植物": 9065,
      "win": 9066,
      "▁amb": 9067,
      "所以你": 9068,
      "ropri": 9069,
      "anda": 9070,
      "▁Jul": 9071,
      "管道": 9072,
      "▁ese": 9073,
      "▁nur": 9074,
      "▁guard": 9075,
      "ems": 9076,
      "▁innov": 9077,
      "▁Daily": 9078,
      "▁investing": 9079,
      "▁Eric": 9080,
      "▁subscribe": 9081,
      "少数": 9082,
      "org": 9083,
      "看的": 9084,
      "ся": 9085,
      "▁twice": 9086,
      "克兰": 9087,
      "师兄": 9088,
      "这家伙": 9089,
      "zer": 9090,
      "什么事": 9091,
      "ville": 9092,
      "▁ɛvɝi": 9093,
      "▁differently": 9094,
      "▁bond": 9095,
      "我国": 9096,
      "▁developed": 9097,
      "▁regul": 9098,
      "▁November": 9099,
      "isa": 9100,
      "lease": 9101,
      "pril": 9102,
      "acing": 9103,
      "ola": 9104,
      "▁Sept": 9105,
      "▁Brian": 9106,
      "依靠": 9107,
      "rick": 9108,
      "落在": 9109,
      "▁emotion": 9110,
      "两只": 9111,
      "大夫": 9112,
      "▁universe": 9113,
      "▁это": 9114,
      "arm": 9115,
      "就知道": 9116,
      "▁loves": 9117,
      "就觉得": 9118,
      "andon": 9119,
      "pet": 9120,
      "hora": 9121,
      "▁likes": 9122,
      "拉着": 9123,
      "小时候": 9124,
      "▁serve": 9125,
      "▁Remember": 9126,
      "原始": 9127,
      "规矩": 9128,
      "ɪkt": 9129,
      "增强": 9130,
      "▁More": 9131,
      "▁α": 9132,
      "挣扎": 9133,
      "搜索": 9134,
      "达成": 9135,
      "▁Hu": 9136,
      "lines": 9137,
      "▁dogs": 9138,
      "▁但是": 9139,
      "▁sme": 9140,
      "▁driver": 9141,
      "区的": 9142,
      "要不": 9143,
      "▁dit": 9144,
      "▁expand": 9145,
      "当成": 9146,
      "线上": 9147,
      "▁Port": 9148,
      "在这个时候": 9149,
      "存在的": 9150,
      "▁occur": 9151,
      "声道": 9152,
      "▁alive": 9153,
      "▁subst": 9154,
      "此事": 9155,
      "猛然": 9156,
      "▁reaction": 9157,
      "银子": 9158,
      "明显的": 9159,
      "▁tɔkɪŋ": 9160,
      "▁schedule": 9161,
      "▁India": 9162,
      "▁feedback": 9163,
      "▁kəns": 9164,
      "▁useful": 9165,
      "得上": 9166,
      "一副": 9167,
      "通道": 9168,
      "力气": 9169,
      "负债": 9170,
      "əkəl": 9171,
      "有利": 9172,
      "▁answers": 9173,
      "▁Play": 9174,
      "交往": 9175,
      "运行": 9176,
      "接到": 9177,
      "▁counter": 9178,
      "台上": 9179,
      "更为": 9180,
      "▁verd": 9181,
      "▁normally": 9182,
      "实的": 9183,
      "区分": 9184,
      "后面的": 9185,
      "▁Everything": 9186,
      "▁boys": 9187,
      "%.": 9188,
      "。。": 9189,
      "白了": 9190,
      "▁lui": 9191,
      "kai": 9192,
      "你不能": 9193,
      "▁了": 9194,
      "对抗": 9195,
      "品的": 9196,
      "vant": 9197,
      "粉丝": 9198,
      "iven": 9199,
      "▁Kevin": 9200,
      "还挺": 9201,
      "▁dive": 9202,
      "▁September": 9203,
      "▁cit": 9204,
      "最为": 9205,
      "百年": 9206,
      "森林": 9207,
      "江南": 9208,
      "▁reflect": 9209,
      "▁ка": 9210,
      "▁læst": 9211,
      "火车": 9212,
      "▁April": 9213,
      "的主要": 9214,
      "iana": 9215,
      "眼泪": 9216,
      "lə": 9217,
      "强制": 9218,
      "▁500": 9219,
      "虚空": 9220,
      "▁Chic": 9221,
      "▁yards": 9222,
      "打得": 9223,
      "▁vul": 9224,
      "jk": 9225,
      "所以在": 9226,
      "▁altern": 9227,
      "▁lɪsən": 9228,
      "渴望": 9229,
      "礼物": 9230,
      "就不是": 9231,
      "▁TikTok": 9232,
      "开的": 9233,
      "要不然": 9234,
      "有三": 9235,
      "孩子们": 9236,
      "错的": 9237,
      "▁demon": 9238,
      "前方": 9239,
      "后悔": 9240,
      "扩大": 9241,
      "bled": 9242,
      "▁investors": 9243,
      "BI": 9244,
      "He": 9245,
      "主观": 9246,
      "▁kuan": 9247,
      "lied": 9248,
      "да": 9249,
      "拿起": 9250,
      "混乱": 9251,
      "▁evol": 9252,
      "之色": 9253,
      "▁Once": 9254,
      "▁leads": 9255,
      "线的": 9256,
      "ɪtɪŋ": 9257,
      "▁Bay": 9258,
      "我还是": 9259,
      "ously": 9260,
      "whel": 9261,
      "▁Res": 9262,
      "听到了": 9263,
      "▁Sal": 9264,
      "▁Hill": 9265,
      "oo": 9266,
      "bes": 9267,
      "上帝": 9268,
      "设施": 9269,
      "遭遇": 9270,
      "第四个": 9271,
      "▁dynam": 9272,
      "▁shooting": 9273,
      "▁announced": 9274,
      "演员": 9275,
      "第七": 9276,
      "▁flag": 9277,
      "▁deeper": 9278,
      "▁workers": 9279,
      "承包": 9280,
      "无所": 9281,
      "深处": 9282,
      "▁phr": 9283,
      "▁sind": 9284,
      "及其": 9285,
      "破了": 9286,
      "那人": 9287,
      "▁kil": 9288,
      "流动": 9289,
      "▁activity": 9290,
      "▁ɪntɝ": 9291,
      "这样的人": 9292,
      "▁cycle": 9293,
      "▁Jon": 9294,
      "▁democr": 9295,
      "ev": 9296,
      "后边": 9297,
      "▁Por": 9298,
      "▁ع": 9299,
      "oken": 9300,
      "▁central": 9301,
      "会在": 9302,
      "顺着": 9303,
      "PT": 9304,
      "▁condition": 9305,
      "就行": 9306,
      "强烈": 9307,
      "▁os": 9308,
      "其次": 9309,
      "▁basketball": 9310,
      "他能": 9311,
      "男女": 9312,
      "▁rɛ": 9313,
      "▁Take": 9314,
      "uries": 9315,
      "前后": 9316,
      "就好了": 9317,
      "▁Whe": 9318,
      "▁despite": 9319,
      "指着": 9320,
      "犹太": 9321,
      "▁sides": 9322,
      "斯特": 9323,
      "▁download": 9324,
      "心想": 9325,
      "▁Last": 9326,
      "面积": 9327,
      "▁complicated": 9328,
      "▁brilliant": 9329,
      "他都": 9330,
      "这几": 9331,
      "ysis": 9332,
      "▁published": 9333,
      "陆泽": 9334,
      "对外": 9335,
      "陛下": 9336,
      "牺牲": 9337,
      "件事情": 9338,
      "面色": 9339,
      "在中国": 9340,
      "▁projects": 9341,
      "然的": 9342,
      "节课": 9343,
      "▁produce": 9344,
      "yue": 9345,
      "加工": 9346,
      "对话": 9347,
      "fɝ": 9348,
      "公式": 9349,
      "据说": 9350,
      "金钱": 9351,
      "▁Fox": 9352,
      "nie": 9353,
      "在外": 9354,
      "你可能": 9355,
      "只需要": 9356,
      "▁Jason": 9357,
      "▁individuals": 9358,
      "天赋": 9359,
      "▁allows": 9360,
      "咱们的": 9361,
      "威力": 9362,
      "生素": 9363,
      "陌生": 9364,
      "▁bound": 9365,
      "房屋": 9366,
      "美国的": 9367,
      "▁clim": 9368,
      "门外": 9369,
      "中午": 9370,
      "出于": 9371,
      "白天": 9372,
      "▁pal": 9373,
      "这样做": 9374,
      "cohol": 9375,
      "▁entertain": 9376,
      "海军": 9377,
      "▁fruit": 9378,
      "一座": 9379,
      "勇气": 9380,
      "客人": 9381,
      "之事": 9382,
      "推动": 9383,
      "禁止": 9384,
      "播讲": 9385,
      "来找": 9386,
      "金属": 9387,
      "ufact": 9388,
      "▁ε": 9389,
      "▁Richard": 9390,
      "为他": 9391,
      "凶手": 9392,
      "我没": 9393,
      "zed": 9394,
      "▁Ep": 9395,
      "▁ú": 9396,
      "iance": 9397,
      "▁stret": 9398,
      "局长": 9399,
      "为啥": 9400,
      "要注意": 9401,
      "▁aɪdi": 9402,
      "人工": 9403,
      "▁Bur": 9404,
      "动静": 9405,
      "营业": 9406,
      "起来的": 9407,
      "▁wəts": 9408,
      "六个": 9409,
      "王子": 9410,
      "▁highlight": 9411,
      "叶璇": 9412,
      "长安": 9413,
      "太多了": 9414,
      "▁seɪɪŋ": 9415,
      "bəbli": 9416,
      "aɪm": 9417,
      "▁dropped": 9418,
      "▁assume": 9419,
      "当作": 9420,
      "▁pleɪs": 9421,
      "▁competition": 9422,
      "恋爱": 9423,
      "▁Das": 9424,
      "▁claim": 9425,
      "▁Johnson": 9426,
      "▁measure": 9427,
      "传递": 9428,
      "刚好": 9429,
      "gl": 9430,
      "北方": 9431,
      "一个人的": 9432,
      "专注": 9433,
      "isl": 9434,
      "▁Mex": 9435,
      "▁however": 9436,
      "本人": 9437,
      "▁rot": 9438,
      "well": 9439,
      "著名的": 9440,
      "▁sem": 9441,
      "诸侯": 9442,
      "产生的": 9443,
      "▁Atl": 9444,
      "▁dress": 9445,
      "▁slash": 9446,
      "物理": 9447,
      "怎么说": 9448,
      "要不要": 9449,
      "▁Wow": 9450,
      "▁tack": 9451,
      "▁Germany": 9452,
      "转让": 9453,
      "cken": 9454,
      "cknow": 9455,
      "▁effects": 9456,
      "IP": 9457,
      "ðæt": 9458,
      "损害": 9459,
      "▁limit": 9460,
      "▁element": 9461,
      "vəl": 9462,
      "平常": 9463,
      "这都是": 9464,
      "锻炼": 9465,
      "▁Ve": 9466,
      "▁ast": 9467,
      "▁consequ": 9468,
      "-/": 9469,
      "倾向": 9470,
      "用力": 9471,
      "▁Western": 9472,
      "反抗": 9473,
      "▁Next": 9474,
      "▁Chicago": 9475,
      "法定": 9476,
      "▁client": 9477,
      "ки": 9478,
      "▁horse": 9479,
      "AC": 9480,
      "▁described": 9481,
      "算了": 9482,
      "oir": 9483,
      "在那儿": 9484,
      "▁conflict": 9485,
      "▁ر": 9486,
      "▁nav": 9487,
      "▁že": 9488,
      "称之为": 9489,
      "你没有": 9490,
      "▁ahí": 9491,
      "▁Met": 9492,
      "▁Mur": 9493,
      "▁Canada": 9494,
      "地产": 9495,
      "▁seriously": 9496,
      "ria": 9497,
      "▁animal": 9498,
      "▁camera": 9499,
      "wɛr": 9500,
      "如果有": 9501,
      "▁diagn": 9502,
      "▁pure": 9503,
      "ʌvɝ": 9504,
      "妇女": 9505,
      "▁spi": 9506,
      "▁jɪrz": 9507,
      "的去": 9508,
      "悟空": 9509,
      "▁Cup": 9510,
      "▁larger": 9511,
      "阿尔": 9512,
      "乌克兰": 9513,
      "▁sang": 9514,
      "tan": 9515,
      "▁hero": 9516,
      "▁athlet": 9517,
      "上升": 9518,
      "▁pil": 9519,
      "▁grace": 9520,
      "部落": 9521,
      "增值税": 9522,
      "的车": 9523,
      "cou": 9524,
      "rie": 9525,
      "南京": 9526,
      "▁tor": 9527,
      "▁有": 9528,
      "▁та": 9529,
      "əsli": 9530,
      "右手": 9531,
      "▁temper": 9532,
      "gang": 9533,
      "▁där": 9534,
      "▁hunt": 9535,
      "urally": 9536,
      "出租": 9537,
      "秘书": 9538,
      "▁homes": 9539,
      "▁Exactly": 9540,
      "全是": 9541,
      "▁breaking": 9542,
      "把自己的": 9543,
      "▁trig": 9544,
      "▁crack": 9545,
      "hmm": 9546,
      "▁Sure": 9547,
      "是说": 9548,
      "的吗": 9549,
      "难度": 9550,
      "▁ü": 9551,
      "投降": 9552,
      "不止": 9553,
      "mat": 9554,
      "▁dʌznt": 9555,
      "一根": 9556,
      "检验": 9557,
      "上面的": 9558,
      "的人物": 9559,
      "对面": 9560,
      "▁ل": 9561,
      "▁condu": 9562,
      "基地": 9563,
      "▁witness": 9564,
      "冷静": 9565,
      "rai": 9566,
      "▁oʊkeɪ": 9567,
      "的了": 9568,
      "▁faire": 9569,
      "ued": 9570,
      "要做": 9571,
      "▁AD": 9572,
      "会被": 9573,
      "呢就": 9574,
      "▁aussi": 9575,
      "运气": 9576,
      "whi": 9577,
      "▁surround": 9578,
      "他可能": 9579,
      "roll": 9580,
      "▁pictures": 9581,
      "▁21": 9582,
      "▁acknow": 9583,
      "下来了": 9584,
      "▁elle": 9585,
      "这一块": 9586,
      "▁tweet": 9587,
      "斯的": 9588,
      "▁Josh": 9589,
      "▁adop": 9590,
      "▁Jordan": 9591,
      "一顿": 9592,
      "口中": 9593,
      "奖励": 9594,
      "其余": 9595,
      "提示": 9596,
      "▁Die": 9597,
      "▁Victor": 9598,
      "返回": 9599,
      "isf": 9600,
      "▁defend": 9601,
      "ین": 9602,
      "duo": 9603,
      "▁harm": 9604,
      "leɪʃən": 9605,
      "上午": 9606,
      "波动": 9607,
      "▁nerv": 9608,
      "▁sale": 9609,
      "再看": 9610,
      "地点": 9611,
      "▁estate": 9612,
      "▁lucky": 9613,
      "▁Tay": 9614,
      "▁wis": 9615,
      "▁Frank": 9616,
      "▁forgot": 9617,
      "stænd": 9618,
      "▁mucho": 9619,
      "24": 9620,
      "当我": 9621,
      "▁Make": 9622,
      "免费": 9623,
      "ре": 9624,
      "推进": 9625,
      "为自己": 9626,
      "▁communities": 9627,
      "▁manufact": 9628,
      "一一": 9629,
      "的那一": 9630,
      "刘邦": 9631,
      "是啊": 9632,
      "欣赏": 9633,
      "kin": 9634,
      "illa": 9635,
      "少了": 9636,
      "无效": 9637,
      "秦国": 9638,
      "fol": 9639,
      "▁Phil": 9640,
      "▁puts": 9641,
      "占领": 9642,
      "民事": 9643,
      "偷偷": 9644,
      "iculous": 9645,
      "▁mistake": 9646,
      "▁Eli": 9647,
      "身为": 9648,
      "ны": 9649,
      "严肃": 9650,
      "性和": 9651,
      "▁highest": 9652,
      "▁Eu": 9653,
      "▁kwɛstʃən": 9654,
      "看过": 9655,
      "▁fish": 9656,
      "▁overwhel": 9657,
      "▁mes": 9658,
      "▁heat": 9659,
      "▁damage": 9660,
      "feng": 9661,
      "▁depending": 9662,
      "告诉他": 9663,
      "▁employees": 9664,
      "颤抖": 9665,
      "完成了": 9666,
      "▁stars": 9667,
      "界的": 9668,
      "▁tədeɪ": 9669,
      "AR": 9670,
      "演讲": 9671,
      "▁ook": 9672,
      "一头": 9673,
      "知识点": 9674,
      "▁Hen": 9675,
      "▁wenn": 9676,
      "得意": 9677,
      "▁gent": 9678,
      "▁tiny": 9679,
      "他不是": 9680,
      "都不会": 9681,
      "▁experiment": 9682,
      "小白": 9683,
      "居住": 9684,
      "▁decir": 9685,
      "dr": 9686,
      "合格": 9687,
      "那时": 9688,
      "招标": 9689,
      "▁responsible": 9690,
      "但在": 9691,
      "起诉": 9692,
      "ups": 9693,
      "ksom": 9694,
      "它是一个": 9695,
      "▁boss": 9696,
      "▁prepared": 9697,
      "icious": 9698,
      "▁uncom": 9699,
      "▁received": 9700,
      "▁weather": 9701,
      "走的": 9702,
      "▁soul": 9703,
      "▁ɪmpɔrt": 9704,
      "第二次": 9705,
      "导演": 9706,
      "▁Sarah": 9707,
      "▁female": 9708,
      "ateful": 9709,
      "▁invent": 9710,
      "gia": 9711,
      "我们讲": 9712,
      "huan": 9713,
      "▁purs": 9714,
      "更加的": 9715,
      "▁mac": 9716,
      "▁chose": 9717,
      "ei": 9718,
      "侦查": 9719,
      "少女": 9720,
      "想过": 9721,
      "▁peut": 9722,
      "▁σ": 9723,
      "不停地": 9724,
      "▁meɪd": 9725,
      "▁Department": 9726,
      "▁cin": 9727,
      "▁section": 9728,
      "主题": 9729,
      "信仰": 9730,
      "案子": 9731,
      "学员": 9732,
      "非常好": 9733,
      "▁adapt": 9734,
      "出版": 9735,
      "娱乐": 9736,
      "我先": 9737,
      "▁Jose": 9738,
      "▁Times": 9739,
      "原来的": 9740,
      "▁remo": 9741,
      "最初": 9742,
      "▁2.": 9743,
      "还有什么": 9744,
      "▁circumst": 9745,
      "南方": 9746,
      "他觉得": 9747,
      "▁agent": 9748,
      "▁Ten": 9749,
      "特的": 9750,
      "与此同时": 9751,
      "agues": 9752,
      "偶尔": 9753,
      "▁habit": 9754,
      "内心的": 9755,
      "进入了": 9756,
      "前提": 9757,
      "▁ven": 9758,
      "统计": 9759,
      "án": 9760,
      "▁kɝ": 9761,
      "谈判": 9762,
      "▁cart": 9763,
      "▁plenty": 9764,
      "▁receive": 9765,
      "坦克": 9766,
      "▁zone": 9767,
      "iev": 9768,
      "▁promot": 9769,
      "▁Ken": 9770,
      "保留": 9771,
      "有一点": 9772,
      "没有了": 9773,
      "zhou": 9774,
      "▁Tell": 9775,
      "▁poco": 9776,
      "▁disci": 9777,
      "▁transl": 9778,
      "▁μ": 9779,
      "给人": 9780,
      "▁Lo": 9781,
      "的变化": 9782,
      "定位": 9783,
      "▁vamos": 9784,
      "▁whose": 9785,
      "想不到": 9786,
      "▁magic": 9787,
      "▁dete": 9788,
      "▁laws": 9789,
      "▁vulner": 9790,
      "rees": 9791,
      "暴露": 9792,
      "刚开始": 9793,
      "中了": 9794,
      "才有": 9795,
      "指出": 9796,
      "ili": 9797,
      "▁retire": 9798,
      "▁politic": 9799,
      "▁narrative": 9800,
      "ete": 9801,
      "日军": 9802,
      "lɪŋ": 9803,
      "▁sympt": 9804,
      "拳头": 9805,
      "违法": 9806,
      "▁lad": 9807,
      "▁Over": 9808,
      "种种": 9809,
      "▁breath": 9810,
      "利率": 9811,
      "uine": 9812,
      "▁studio": 9813,
      "吩咐": 9814,
      "宝贝": 9815,
      "采购": 9816,
      "eles": 9817,
      "sha": 9818,
      "ətli": 9819,
      "craft": 9820,
      "三四": 9821,
      "有过": 9822,
      "▁immig": 9823,
      "ett": 9824,
      "▁July": 9825,
      "bru": 9826,
      "▁argue": 9827,
      "深度": 9828,
      "老实": 9829,
      "躺在": 9830,
      "▁programs": 9831,
      "乃是": 9832,
      "神色": 9833,
      "▁reports": 9834,
      "布置": 9835,
      "师的": 9836,
      "成果": 9837,
      "box": 9838,
      "athy": 9839,
      "大笑": 9840,
      "▁primary": 9841,
      "消灭": 9842,
      "率领": 9843,
      "▁drinking": 9844,
      "几分": 9845,
      "当场": 9846,
      "iminal": 9847,
      "▁actions": 9848,
      "判决": 9849,
      "着了": 9850,
      "神奇": 9851,
      "说出": 9852,
      "跟我说": 9853,
      "叔叔": 9854,
      "形势": 9855,
      "形容": 9856,
      "▁models": 9857,
      "▁不": 9858,
      "▁Bra": 9859,
      "旅行": 9860,
      "自杀": 9861,
      "bol": 9862,
      "song": 9863,
      "▁gosh": 9864,
      "▁shall": 9865,
      "远的": 9866,
      "消费者": 9867,
      "社会的": 9868,
      "▁via": 9869,
      "▁drugs": 9870,
      "▁Street": 9871,
      "怎么能": 9872,
      "▁Prem": 9873,
      "itable": 9874,
      "▁cities": 9875,
      "▁liksom": 9876,
      "葡萄": 9877,
      "ʌmp": 9878,
      "拼命": 9879,
      "有两": 9880,
      "举个": 9881,
      "前面的": 9882,
      "把这些": 9883,
      "▁Bas": 9884,
      "▁zhai": 9885,
      "武装": 9886,
      "白色": 9887,
      "▁deals": 9888,
      "jəlɝ": 9889,
      "▁大家好": 9890,
      "就叫": 9891,
      "了出去": 9892,
      "即便是": 9893,
      "▁Vir": 9894,
      "▁flat": 9895,
      "▁quand": 9896,
      "▁səp": 9897,
      "怎么回事": 9898,
[...]
